<unk>	0
<s>	0
</s>	0
<cls>	0
<sep>	0
<pad>	0
<mask>	0
<eod>	0
<eop>	0
.	-3.22863
의	-4.27885
을	-4.33273
는	-4.52813
에	-4.53079
▁	-4.55948
이	-4.6044
를	-4.71521
가	-4.82789
은	-4.88265
)	-5.07268
도	-5.11878
로	-5.25724
과	-5.27096
(	-5.38032
▁수	-5.40899
에서	-5.44629
▁있다	-5.44701
고	-5.51419
일	-5.58602
와	-5.5894
으로	-5.60766
한	-5.62378
인	-5.74057
▁이	-5.74505
▁1	-5.80108
년	-5.85917
▁등	-5.95214
▁2	-5.95367
▁‘	-5.95383
’	-5.99594
만	-6.01777
▁3	-6.04965
▁있는	-6.07577
다	-6.09075
”	-6.09568
▁“	-6.09891
하는	-6.14107
지	-6.16457
하고	-6.16688
해	-6.19455
▁한	-6.23006
할	-6.23099
월	-6.29145
·	-6.31659
기	-6.34506
했다	-6.37677
▁고	-6.37923
▁4	-6.38815
▁전	-6.48055
▁것으로	-6.54106
▁5	-6.54742
,	-6.57562
시	-6.58849
대	-6.64545
▁것	-6.64732
▁그	-6.67016
나	-6.70048
▁대한	-6.70869
자	-6.73204
이다	-6.76533
까지	-6.76906
며	-6.774
서	-6.79476
▁6	-6.82403
▁지난	-6.82732
▁중	-6.84831
▁통해	-6.86142
▁10	-6.89193
▁위해	-6.91106
▁더	-6.93186
사	-6.93235
▁한다	-6.95216
개	-6.9543
된	-6.95905
수	-6.96431
면	-6.99687
▁말했다	-7.00024
▁했다	-7.02809
주	-7.0291
▁또	-7.03966
에게	-7.05969
▁7	-7.07473
성	-7.08984
▁및	-7.09211
적	-7.0965
리	-7.10875
▁함께	-7.11803
원	-7.12226
스	-7.12454
▁이번	-7.13385
▁8	-7.13894
▁한국	-7.16147
하게	-7.16412
들이	-7.16796
게	-7.16907
한다	-7.17081
▁밝혔다	-7.18347
▁때	-7.20028
명	-7.20231
▁(	-7.20703
▁할	-7.23047
▁것이다	-7.23106
▁두	-7.23338
진	-7.23453
2	-7.24208
라	-7.24331
▁김	-7.24712
장	-7.26316
▁하지만	-7.27369
▁것이	-7.274
▁9	-7.27452
▁이날	-7.27814
조	-7.28154
▁안	-7.28225
야	-7.28849
전	-7.29185
▁가장	-7.29245
▁것은	-7.30023
▁같은	-7.30194
분	-7.30479
상	-7.30615
▁이후	-7.30622
▁때문에	-7.31138
하지	-7.31591
에는	-7.31938
▁경우	-7.31957
차	-7.32057
동	-7.32435
부	-7.33016
▁대해	-7.33372
▁후	-7.33437
▁하는	-7.33752
화	-7.34184
위	-7.34376
▁지난해	-7.34518
어	-7.34742
▁내	-7.3501
▁제	-7.3575
▁특히	-7.37587
비	-7.41268
▁위한	-7.41623
선	-7.4227
▁미국	-7.42317
세	-7.4237
▁따라	-7.42615
하며	-7.42945
▁뒤	-7.42975
하기	-7.43135
▁이어	-7.43321
제	-7.44041
미	-7.4459
천	-7.44848
▁정	-7.45503
아	-7.45687
이나	-7.46202
▁다른	-7.46814
정	-7.4767
▁그는	-7.47718
▁등을	-7.47894
▁큰	-7.48887
에서는	-7.4904
우	-7.49259
▁최근	-7.49429
회	-7.50113
1	-7.50208
적인	-7.50362
▁시	-7.5069
▁박	-7.51224
▁서울	-7.51937
보다	-7.53541
면서	-7.54339
▁모두	-7.54559
▁현재	-7.54865
▁그러나	-7.54869
▁12	-7.55212
▁다	-7.55261
소	-7.56724
산	-7.57185
이라고	-7.57457
▁며	-7.57487
형	-7.58
▁없다	-7.58356
용	-7.59146
호	-7.59314
▁11	-7.59723
▁20	-7.59747
▁잘	-7.60097
구	-7.60303
억	-7.61861
▁많은	-7.62101
신	-7.62181
치	-7.62704
▁가	-7.62752
당	-7.63162
▁국내	-7.63292
라고	-7.63434
▁미	-7.63474
해야	-7.63731
▁이상	-7.63884
▁일	-7.64091
▁된다	-7.65356
▁오	-7.67016
부터	-7.67066
▁원	-7.67284
▁중국	-7.67396
여	-7.67426
▁것을	-7.67573
라는	-7.67735
보	-7.67997
3	-7.6825
마	-7.68342
▁비	-7.6864
▁주	-7.68972
▁경기	-7.69185
되는	-7.69385
중	-7.69392
드	-7.69635
▁사	-7.69668
던	-7.70375
▁따르면	-7.71351
▁유	-7.71385
트	-7.71743
식	-7.73112
▁올해	-7.74555
▁말	-7.74567
승	-7.74977
됐다	-7.75054
▁게	-7.75327
▁관련	-7.75442
▁없는	-7.76209
▁해	-7.7625
▁총	-7.7633
하면서	-7.76443
m	-7.76729
▁될	-7.77267
▁데	-7.77786
▁세계	-7.77791
▁하고	-7.77838
▁시즌	-7.78063
▁조	-7.78882
▁아니라	-7.78982
▁일본	-7.79008
▁바	-7.79109
▁다시	-7.79664
될	-7.79874
▁대	-7.80289
▁30	-7.80347
▁지	-7.80496
들은	-7.80829
니	-7.8091
▁다양한	-7.81657
▁첫	-7.82418
▁신	-7.82535
▁이런	-7.82827
점	-7.8314
에도	-7.83395
파	-7.8342
▁아	-7.84795
타	-7.84932
오	-7.85336
적으로	-7.85517
▁우리	-7.86336
하면	-7.86838
▁또한	-7.86958
▁기자	-7.87335
무	-7.87337
▁가운데	-7.87392
▁많이	-7.88647
재	-7.88953
하	-7.90439
돼	-7.90458
경	-7.90459
영	-7.90896
▁이에	-7.91645
▁모든	-7.91751
연	-7.91789
▁약	-7.91906
들을	-7.9289
이라는	-7.93151
▁게임	-7.93804
강	-7.941
▁이라고	-7.94212
관	-7.94554
유	-7.94718
억원	-7.94895
▁있습니다	-7.94992
▁19	-7.95495
▁그리고	-7.95521
▁열린	-7.95634
요	-7.95653
▁세	-7.95704
실	-7.95937
들	-7.9663
▁A	-7.9667
모	-7.9704
들의	-7.97226
▁15	-7.97598
민	-7.97766
▁당시	-7.97822
▁있어	-7.98009
▁서	-7.98926
단	-7.98969
급	-7.99619
▁장	-7.99802
▁강	-7.9993
▁동안	-8.00016
▁이를	-8.00261
▁볼	-8.00322
지만	-8.00781
였다	-8.00825
▁무	-8.01128
석	-8.01518
국	-8.02195
▁기	-8.02274
▁지역	-8.02407
▁좋은	-8.02617
▁새로운	-8.02784
안	-8.03334
르	-8.03553
▁역시	-8.03561
▁양	-8.03638
했던	-8.03805
권	-8.03924
이었다	-8.04392
입니다	-8.05389
되고	-8.05584
물	-8.06047
문	-8.06287
간	-8.06402
▁부	-8.06409
▁않고	-8.06605
▁나	-8.06733
▁당	-8.06988
▁있다는	-8.07105
계	-8.07154
▁올	-8.07172
▁때문이다	-8.07245
▁하	-8.07474
▁자	-8.07628
▁등의	-8.07837
된다	-8.07896
▁16	-8.09429
▁있었다	-8.09526
▁노	-8.09598
▁높은	-8.09815
:	-8.1006
했고	-8.10162
군	-8.10501
루	-8.10591
▁않은	-8.10752
▁구	-8.10898
▁예정이다	-8.10913
배	-8.1111
4	-8.11751
방	-8.11934
▁됐다	-8.11997
▁문	-8.12036
공	-8.12059
내	-8.12182
▁오후	-8.12281
하다	-8.12554
히	-8.12991
노	-8.13083
▁모	-8.13117
▁한편	-8.135
처럼	-8.13503
▁있을	-8.13512
▁도	-8.13523
현	-8.13613
▁간	-8.13709
▁등이	-8.13927
만원	-8.14143
▁마	-8.14784
▁오는	-8.15506
프	-8.15642
▁LG	-8.15792
종	-8.16596
▁직접	-8.16907
포	-8.16944
▁물론	-8.1707
▁있도록	-8.17078
▁13	-8.17159
데	-8.17681
토	-8.17901
질	-8.18112
하여	-8.18139
▁초	-8.18184
초	-8.18197
▁18	-8.18495
▁관계자는	-8.18752
▁지원	-8.19098
▁보인다	-8.19856
5	-8.20342
양	-8.20428
건	-8.20453
▁않았다	-8.20731
카	-8.21024
바	-8.21064
▁100	-8.21067
▁시장	-8.21149
크	-8.2143
▁건	-8.21468
▁설명했다	-8.21484
러	-8.21511
법	-8.21597
▁최	-8.21734
▁경제	-8.21972
병	-8.22086
엔	-8.22146
▁알	-8.22311
▁반	-8.22964
▁사업	-8.22974
▁자신의	-8.23077
▁14	-8.23251
▁보고	-8.23292
란	-8.23733
▁있다고	-8.23966
약	-8.24287
▁투자	-8.24469
▁연	-8.2453
즈	-8.24561
▁SK	-8.2537
금	-8.25709
▁정부	-8.25742
▁만큼	-8.25748
▁대표	-8.25824
▁일부	-8.26639
▁없이	-8.26725
▁이미	-8.26973
▁국가	-8.27036
번	-8.27067
▁어떤	-8.27153
▁재	-8.27269
▁최대	-8.27355
ᆞ	-8.27363
▁각각	-8.27456
▁성	-8.27487
레	-8.27766
▁보	-8.28072
▁선	-8.28112
▁오전	-8.28248
▁피	-8.28434
디	-8.28635
▁단	-8.28977
▁있고	-8.29017
▁앞서	-8.29276
▁각	-8.29355
반	-8.29425
거	-8.2963
준	-8.29632
▁된	-8.30057
▁소	-8.3092
▁주요	-8.31099
▁차	-8.31197
▁바로	-8.31764
▁달	-8.31963
▁더욱	-8.32008
▁크게	-8.32366
▁17	-8.32372
태	-8.32903
▁결국	-8.32996
코	-8.33008
G	-8.33096
▁에	-8.33498
에서도	-8.33896
티	-8.34286
▁기업	-8.34417
▁최고	-8.34418
▁결과	-8.34907
체	-8.34921
▁기존	-8.35003
발	-8.35208
▁정도	-8.35236
학	-8.35383
교	-8.3539
▁서비스	-8.35634
그	-8.35905
S	-8.3629
▁있으며	-8.36574
▁추가	-8.36612
6	-8.37344
▁타	-8.37512
청	-8.3781
▁날	-8.37861
온	-8.37867
린	-8.38247
▁계획이다	-8.3832
했습니다	-8.38538
▁불	-8.38556
▁공	-8.38625
▁들어	-8.387
▁팀	-8.38721
▁발	-8.39111
운	-8.3918
▁해외	-8.39267
시간	-8.39272
▁개발	-8.39404
역	-8.39463
▁않는	-8.39987
▁그런	-8.40139
터	-8.40525
▁:	-8.40883
직	-8.4098
▁부산	-8.41036
▁이는	-8.41111
▁전했다	-8.41405
▁25	-8.41519
두	-8.41587
7	-8.41629
▁새	-8.41644
철	-8.42
▁교육	-8.42151
▁대통령	-8.42377
▁기술	-8.42547
피	-8.43019
박	-8.43063
▁판매	-8.43202
▁줄	-8.43266
▁보면	-8.43412
s	-8.43649
▁로	-8.43802
었다	-8.4399
▁있지만	-8.44029
▁대비	-8.44219
키	-8.44253
▁어	-8.443
▁반면	-8.44401
▁여러	-8.45039
▁것도	-8.45043
했지만	-8.45055
감	-8.45103
▁배	-8.45218
▁21	-8.45411
▁리	-8.4543
희	-8.45877
▁저	-8.46013
해서	-8.46215
일까지	-8.4655
▁운영	-8.46592
▁선수	-8.46667
▁계속	-8.46692
명이	-8.46747
▁명	-8.46892
저	-8.4693
▁카	-8.47114
▁문제	-8.47262
▁상	-8.47278
▁감독은	-8.48069
▁아니다	-8.48096
▁전체	-8.48187
~	-8.48257
심	-8.48444
▁국제	-8.48703
▁사용	-8.48987
개월	-8.49075
▁못	-8.49264
일부터	-8.49355
▁되는	-8.49451
▁S	-8.49647
▁남	-8.49667
▁공격	-8.49911
▁산	-8.49979
려	-8.50074
생	-8.5013
▁강조했다	-8.50364
는데	-8.50444
▁△	-8.50655
▁K	-8.50777
▁파	-8.5095
▁24	-8.51356
경기	-8.51503
창	-8.51549
▁동	-8.51652
거나	-8.51703
▁스	-8.51799
▁물	-8.52523
▁50	-8.52608
판	-8.52632
▁여성	-8.52662
▁거	-8.52752
▁북한	-8.52838
▁전국	-8.52957
▁진행	-8.53242
▁,	-8.53726
▁B	-8.53732
▁어떻게	-8.53842
▁진	-8.53867
▁평균	-8.54319
▁글로벌	-8.54385
▁번	-8.54389
▁시작	-8.54733
▁가능성이	-8.54784
▁C	-8.55139
▁우	-8.55225
▁받고	-8.55348
▁먼저	-8.55647
▁생산	-8.5566
임	-8.55847
▁모습을	-8.56011
▁수도	-8.56157
▁오늘	-8.56264
D	-8.56286
백	-8.56576
▁백	-8.56703
▁사실	-8.56759
▁온	-8.56786
▁손	-8.56931
패	-8.57201
▁대통령은	-8.57229
▁22	-8.57265
통	-8.57637
위를	-8.57761
▁연구	-8.57778
▁공동	-8.57822
길	-8.58017
되어	-8.58064
▁23	-8.58095
근	-8.583
▁대회	-8.58432
▁비해	-8.58493
▁채	-8.58522
층	-8.59004
▁다만	-8.59039
되지	-8.59117
네	-8.59247
집	-8.5929
으며	-8.59308
환	-8.59413
▁매우	-8.59508
▁매	-8.59568
▁아닌	-8.59635
기를	-8.59803
▁위	-8.59856
▁개	-8.59929
8	-8.60166
와의	-8.60188
▁제공	-8.60505
▁따른	-8.60574
남	-8.60616
▁기록	-8.61006
▁지난달	-8.61155
더	-8.61269
▁등에	-8.61347
년간	-8.61349
평	-8.61406
▁추진	-8.61487
▁경	-8.61687
▁방	-8.61704
론	-8.61755
▁황	-8.61775
▁코	-8.61795
▁있기	-8.61841
▁받은	-8.61893
▁지금	-8.61942
지는	-8.62057
▁본	-8.62229
림	-8.62269
등	-8.62419
▁못했다	-8.6261
▁임	-8.62674
▁대상으로	-8.62685
▁해당	-8.62954
▁호	-8.63176
▁만에	-8.63217
▁다음	-8.63385
▁가지	-8.64017
살	-8.64167
▁만	-8.64188
▁갖고	-8.64465
별	-8.65113
▁의원은	-8.65339
▁외	-8.65699
▁열	-8.65701
▁같다	-8.65704
점을	-8.65853
업	-8.6621
설	-8.66255
기도	-8.66628
▁사회	-8.66629
▁처음	-8.67021
증	-8.67195
▁조사	-8.67341
▁대표는	-8.67342
▁앞으로	-8.67602
▁만들어	-8.6804
▁기록했다	-8.68118
▁어느	-8.68165
▁연속	-8.68548
▁개인	-8.6868
▁등으로	-8.6869
▁국민	-8.6879
km	-8.68946
▁심	-8.68988
▁국회	-8.69074
▁현	-8.69092
▁아직	-8.69113
20	-8.69127
▁평가	-8.69322
▁인터넷	-8.69567
▁영	-8.69607
▁허	-8.6964
▁일반	-8.69697
래	-8.69719
▁성공	-8.69819
▁선발	-8.6989
'	-8.70009
복	-8.70042
▁모바일	-8.70332
분기	-8.70493
투	-8.7052
▁문제가	-8.70941
▁하지	-8.7102
명의	-8.71031
▁D	-8.71075
▁영국	-8.71104
▁마지막	-8.71165
광	-8.71315
▁난	-8.71593
▁하나	-8.71687
▁40	-8.71846
져	-8.72216
▁영화	-8.72335
▁이용	-8.72476
▁경기를	-8.72485
▁정치	-8.72496
▁속	-8.7257
▁27	-8.72608
이며	-8.72702
▁인	-8.72703
9	-8.7287
색	-8.72941
▁'	-8.73231
▁정책	-8.73235
▁달리	-8.7344
▁않다	-8.73564
▁윤	-8.73566
▁관리	-8.73573
▁공식	-8.73639
A	-8.73669
C	-8.73694
▁않는다	-8.73738
▁M	-8.73877
▁군	-8.74153
▁사진	-8.74202
▁있게	-8.74258
▁26	-8.74338
▁28	-8.74538
▁상승	-8.74693
습니다	-8.74718
▁삼성	-8.74723
▁생각	-8.74732
▁것이라고	-8.75237
대로	-8.75255
▁개선	-8.75268
산업	-8.75358
▁라고	-8.75421
력	-8.75425
▁정도로	-8.75531
▁여	-8.75667
▁그의	-8.76143
규	-8.76267
▁문화	-8.76296
▁라	-8.76316
▁이라며	-8.76445
불	-8.76458
▁이렇게	-8.7652
▁너무	-8.76557
▁편	-8.76636
류	-8.7666
▁중요한	-8.76748
명을	-8.7676
브	-8.76771
후	-8.77357
▁확대	-8.77456
▁유럽	-8.77479
▁수출	-8.77543
▁시간	-8.77826
▁인기	-8.77939
▁아이	-8.77966
순	-8.77996
▁기간	-8.7805
난	-8.78053
▁않을	-8.7812
▁자동차	-8.78166
▁그동안	-8.78212
M	-8.78304
▁상대	-8.78745
▁걸	-8.78938
▁기준	-8.79458
▁역할을	-8.79532
입	-8.79611
▁인해	-8.7962
▁대학	-8.79657
씨	-8.79689
▁방송	-8.79851
행	-8.79874
기업	-8.79901
▁의원	-8.79994
▁G	-8.80008
▁알려졌다	-8.80085
▁독일	-8.80128
▁핵심	-8.80157
▁변	-8.80341
▁분	-8.80606
츠	-8.80637
▁송	-8.81161
10	-8.81233
량	-8.81291
▁브랜드	-8.8145
매	-8.81454
▁◇	-8.81526
속	-8.81563
열	-8.81609
▁전문	-8.81737
▁받았다	-8.81781
▁우승	-8.81796
▁필요한	-8.81896
▁금융	-8.81997
▁포	-8.82001
각	-8.8225
본	-8.82257
▁이제	-8.82268
...	-8.8242
곡	-8.82571
들과	-8.82652
▁우선	-8.82765
▁대신	-8.8285
▁강화	-8.82912
골	-8.82937
▁영향을	-8.83012
▁제품	-8.83217
▁대통령이	-8.83233
▁집중	-8.83351
P	-8.8345
▁출시	-8.83485
락	-8.83486
▁실제	-8.83591
▁그런데	-8.8382
▁최종	-8.83848
K	-8.83901
▁외국인	-8.83908
▁하루	-8.84025
▁받아	-8.84066
한다는	-8.8425
예	-8.84264
작	-8.84368
▁이와	-8.84449
하기로	-8.84633
▁후반	-8.84702
▁들	-8.84842
▁KT	-8.84891
▁각종	-8.85016
했으며	-8.85089
▁성장	-8.85165
▁금	-8.85304
▁제대로	-8.85416
센터	-8.85429
성을	-8.85434
리그	-8.8584
에선	-8.85894
▁도시	-8.8593
든	-8.85934
▁같이	-8.86048
들에게	-8.86117
▁정부는	-8.86258
사업	-8.86261
▁TV	-8.863
너	-8.86301
합니다	-8.86432
▁29	-8.86449
▁많다	-8.86485
▁통합	-8.8653
▁P	-8.86615
▁동시에	-8.86752
▁발표	-8.86756
▁한다는	-8.86781
▁몇	-8.86967
▁산업	-8.87011
▁번째	-8.87305
▁2015	-8.87411
▁정부가	-8.87541
▁그래서	-8.87553
▁홍	-8.87603
▁현대	-8.87651
하던	-8.87886
▁사람이	-8.87924
▁조성	-8.87925
음	-8.87965
▁해야	-8.8809
▁활동	-8.88131
▁인천	-8.88205
▁없었다	-8.8821
랑	-8.88254
▁중심으로	-8.88368
했다고	-8.88419
관리	-8.88581
▁공개	-8.88598
▁러시아	-8.88626
▁네	-8.8868
출	-8.88719
년부터	-8.88784
▁준비	-8.88962
▁가진	-8.89017
▁살	-8.89071
▁온라인	-8.89233
30	-8.89267
▁후보	-8.89277
▁못한	-8.89316
버	-8.8941
▁삼	-8.89475
▁아시아	-8.89573
▁T	-8.89637
봉	-8.89722
▁공급	-8.89783
B	-8.89829
▁덧붙였다	-8.89907
▁그대로	-8.90122
▁있는데	-8.90143
▁상황에서	-8.90159
▁회사	-8.90252
▁거의	-8.90436
하거나	-8.90532
▁예상	-8.90671
▁점	-8.90733
▁가능하다	-8.90809
▁과정에서	-8.90835
▁정보	-8.90994
(1	-8.91236
망	-8.91313
볼	-8.9143
로부터	-8.91645
표	-8.91749
포인트	-8.9204
▁서비스를	-8.92098
▁건설	-8.92227
▁예	-8.92397
▁또는	-8.92546
서울	-8.92573
추	-8.92614
▁향후	-8.92879
▁보였다	-8.92917
▁청와대	-8.92951
▁결정	-8.92959
되면서	-8.93126
이라며	-8.93305
편	-8.93371
▁실	-8.93443
말	-8.9346
▁이들	-8.93468
▁가지고	-8.93504
▁좀	-8.9353
▁내년	-8.93591
지역	-8.93681
▁계획	-8.93695
▁이러한	-8.93705
▁생활	-8.93869
▁대구	-8.9398
▁스마트폰	-8.94104
▁이야기	-8.94147
▁신규	-8.94172
e	-8.94191
▁대해서는	-8.94196
▁대부분	-8.94565
▁민주당	-8.94588
▁나타났다	-8.94628
개의	-8.94727
▁지방	-8.94807
달	-8.94821
T	-8.94838
▁뿐	-8.94896
인데	-8.95196
t	-8.95368
위에	-8.95489
▁이동	-8.95522
▁2013	-8.95661
▁면서	-8.95709
▁비롯해	-8.95788
씨는	-8.96082
범	-8.96126
하기도	-8.96192
▁프랑스	-8.96209
되었다	-8.9635
▁천	-8.96513
항	-8.96553
외	-8.96754
▁달러	-8.96778
처	-8.96864
▁안전	-8.96897
▁연합뉴스	-8.97057
▁레	-8.97095
▁학교	-8.97436
▁두고	-8.97554
▁받을	-8.97635
▁토	-8.97692
▁시스템	-8.97695
▁정부의	-8.97725
▁대통령의	-8.97762
▁회복	-8.97793
▁광주	-8.97951
주의	-8.97992
▁경영	-8.98068
▁발전	-8.9813
▁문제를	-8.98151
개를	-8.98167
▁쉽게	-8.98175
▁방문	-8.98206
탄	-8.98208
▁일이	-8.98239
목	-8.98264
▁증가	-8.98265
▁법	-8.98349
▁2017	-8.98433
▁오히려	-8.98493
▁가격	-8.986
▁도입	-8.98682
되면	-8.98899
▁프로	-8.9892
▁하면	-8.9894
▁음악	-8.98947
팀	-8.98993
L	-8.99059
▁처리	-8.99081
▁좋다	-8.99089
▁참여	-8.99144
▁리그	-8.99243
▁31	-8.99259
하지만	-8.99275
덕	-8.9939
▁보다	-8.99584
립	-8.9968
담	-8.99726
▁2014	-8.99748
▁감	-8.99788
▁입	-8.99804
▁여자	-8.9991
김	-8.99952
▁여전히	-9.00055
▁치	-9.00361
절	-9.00679
▁인사	-9.00783
문화	-9.00858
▁점을	-9.01011
▁만나	-9.01144
▁상대로	-9.01168
▁2010	-9.01197
▁과거	-9.01533
▁상황	-9.01643
왕	-9.01678
▁갈	-9.0176
▁사람	-9.01826
▁지적했다	-9.0189
▁현지	-9.02053
▁중앙	-9.02109
이지만	-9.02209
▁남자	-9.02257
▁대형	-9.02455
▁2011	-9.02499
▁적	-9.02499
▁2012	-9.02591
▁서로	-9.02598
▁자기	-9.02629
채	-9.02635
교육	-9.02749
졌다	-9.0291
▁집	-9.03199
지를	-9.03334
과의	-9.03434
▁북	-9.03457
▁되고	-9.03575
▁고객	-9.03597
▁관심을	-9.03652
암	-9.0381
▁중인	-9.03976
이라	-9.04146
▁환경	-9.04219
▁뉴스	-9.04298
▁유지	-9.04307
령	-9.04603
스트	-9.04864
▁애	-9.04978
▁요	-9.04994
시설	-9.05095
▁선거	-9.05152
결	-9.05225
▁제작	-9.053
▁있던	-9.05409
워	-9.05483
위원회	-9.05503
▁것이라는	-9.05766
▁통한	-9.05805
커	-9.05847
)’	-9.05875
▁F	-9.06003
▁나는	-9.06091
▁경기에서	-9.06126
▁앞두고	-9.0613
▁시행	-9.06159
▁구성	-9.06159
▁60	-9.06221
업체	-9.06233
변	-9.06264
▁중이다	-9.06264
▁가능한	-9.06339
▁대선	-9.06407
▁축구	-9.0644
▁골	-9.06443
▁은행	-9.06676
격	-9.06676
▁앞	-9.06722
겠다	-9.06769
▁못하고	-9.06792
R	-9.06804
▁선택	-9.06879
릴	-9.06884
자가	-9.07118
▁눈	-9.07152
▁IT	-9.07287
▁행사	-9.07408
▁분석	-9.07531
▁전망이다	-9.07703
▁전략	-9.07762
▁교수	-9.07812
▁팔	-9.08151
▁해도	-9.08277
▁키	-9.08322
▁듯	-9.08435
도록	-9.08446
장을	-9.08621
▁아파트	-9.08736
송	-9.08738
▁순	-9.08844
이자	-9.08881
▁감소	-9.09025
▁구축	-9.09135
▁않아	-9.09257
▁영상	-9.09292
▁힘을	-9.093
▁기본	-9.09456
▁200	-9.0951
테	-9.0955
▁만든	-9.09589
시켜	-9.09718
y	-9.09719
▁반대	-9.09731
▁화	-9.09779
▁과	-9.1002
▁경쟁	-9.10053
▁이상의	-9.1011
▁조직	-9.10162
F	-9.10287
이고	-9.10442
▁역	-9.10447
▁찾아	-9.10647
∼	-9.10656
▁실제로	-9.10766
찬	-9.10793
▁스포츠	-9.10801
▁확인	-9.10835
▁조정	-9.10888
▁주장했다	-9.11028
▁매출	-9.11075
▁콘텐츠	-9.1117
링	-9.11232
하자	-9.11251
▁감독	-9.11355
시즌	-9.11383
주는	-9.11389
▁입장을	-9.11437
▁제주	-9.1147
▁2009	-9.11668
경제	-9.11706
▁돼	-9.11733
▁2008	-9.11806
▁거쳐	-9.11861
투자	-9.11919
▁어려운	-9.11926
▁2000	-9.11935
▁출전	-9.11979
훈	-9.12016
▁없어	-9.12085
▁사실상	-9.12167
▁스스로	-9.1226
▁활용	-9.12284
▁권	-9.12407
▁열리는	-9.12673
북	-9.12798
씩	-9.1291
▁내가	-9.12917
▁청	-9.12923
▁미국의	-9.1303
50	-9.13033
▁협력	-9.13074
▁따라서	-9.13339
울	-9.13346
▁사람들이	-9.13387
▁적용	-9.13494
▁에너지	-9.13502
▁패	-9.1363
▁알고	-9.13634
라운드	-9.13745
▁친	-9.13906
퍼	-9.13975
▁마무리	-9.14168
▁그렇게	-9.14204
▁설치	-9.1431
▁대전	-9.14341
줄	-9.14352
▁말을	-9.14445
▁추	-9.14465
▁부동산	-9.14502
▁승리를	-9.1456
▁인터뷰	-9.1458
▁이전	-9.14689
정보	-9.14725
기술	-9.14775
라며	-9.14802
독	-9.1494
▁자신이	-9.14979
▁왜	-9.14988
▁여기에	-9.15066
월부터	-9.15297
▁우리가	-9.15311
▁특별	-9.15328
▁사고	-9.15371
게임	-9.15433
▁시간이	-9.15441
▁사이	-9.1552
들도	-9.15573
▁상품	-9.15591
하는데	-9.15623
▁최고의	-9.15666
시장	-9.15667
료	-9.15754
▁전환	-9.15765
▁진출	-9.15879
숙	-9.15992
▁운동	-9.16038
▁수입	-9.16089
▁피해	-9.16129
▁하락	-9.16367
▁관련해	-9.16391
▁R	-9.16404
▁2016	-9.16719
으면	-9.16722
▁발생	-9.16846
▁롯데	-9.16961
▁올림픽	-9.16963
하도록	-9.16973
▁E	-9.17035
윤	-9.17073
쳐	-9.17088
▁통신	-9.17089
p	-9.17293
▁이들은	-9.17367
▁하다	-9.17459
▁강한	-9.17464
억원을	-9.1748
▁미래	-9.17581
▁선정	-9.17586
가지	-9.17593
개발	-9.17872
▁500	-9.17897
품	-9.17927
▁자체	-9.1794
▁우리는	-9.1805
▁수사	-9.1809
▁받는	-9.18136
▁대상	-9.18151
션	-9.18324
▁풀	-9.18515
U	-9.18528
▁왕	-9.18655
o	-9.18665
▁작년	-9.18704
▁한다고	-9.18726
날	-9.18746
▁설	-9.18867
▁인상	-9.1888
▁소속	-9.18997
▁합니다	-9.19013
였던	-9.19108
▁오른	-9.19193
▁가족	-9.19339
▁되었다	-9.19359
▁전반	-9.19371
▁베	-9.19421
▁프로그램	-9.19454
▁일단	-9.19805
▁낮	-9.19885
언	-9.19951
▁업무	-9.19987
▁트럼프	-9.20023
▁일정	-9.20042
▁기회를	-9.20051
▁나온	-9.20153
▁인수	-9.20241
▁"	-9.20304
▁전혀	-9.20468
W	-9.20717
지원	-9.20733
▁수밖에	-9.20815
▁주택	-9.20909
▁디자인	-9.2095
성이	-9.21002
▁주는	-9.21012
율	-9.21109
▁학생	-9.21184
▁교	-9.21254
악	-9.21296
▁교수는	-9.21461
▁현장	-9.21467
▁사랑	-9.21523
▁전날	-9.21634
▁2007	-9.21807
▁차량	-9.21844
▁즉	-9.21871
빈	-9.21933
▁조선	-9.21966
▁거래	-9.21978
▁혁신	-9.22254
▁정말	-9.2229
쿠	-9.22386
했을	-9.22397
▁왔다	-9.2241
▁관한	-9.22481
서비스	-9.22545
권을	-9.22597
▁통	-9.22602
▁판	-9.22668
▁처음으로	-9.22723
▁계약	-9.22724
▁포함	-9.22734
▁필요	-9.22806
함	-9.22848
년까지	-9.22888
▁지급	-9.22924
▁별	-9.2293
▁공연	-9.22937
탈	-9.2298
마다	-9.23
▁민	-9.23004
▁조금	-9.23008
▁시작했다	-9.23255
▁쓰	-9.23259
갈	-9.23297
▁치료	-9.23317
▁되어	-9.23347
▁보이고	-9.23414
▁기대	-9.2345
▁대응	-9.2347
자는	-9.23477
▁시도	-9.23522
겠습니다	-9.23525
막	-9.23586
▁만들	-9.23649
▁한나라당	-9.23699
▁광고	-9.23712
▁해서	-9.23843
▁측은	-9.2398
▁올랐다	-9.24008
▁연결	-9.24071
▁작은	-9.24105
▁인도	-9.24147
▁캐릭터	-9.2426
▁월	-9.2436
정책	-9.24402
조원	-9.24404
▁병	-9.24432
▁내용을	-9.24448
했으나	-9.24477
▁마련	-9.24538
▁놓고	-9.24559
▁예정	-9.2472
장은	-9.24852
▁출신	-9.24892
▁전시	-9.24899
▁건물	-9.24928
▁필요하다	-9.24981
▁때는	-9.25011
▁박근혜	-9.25286
▁길	-9.25421
단체	-9.25469
▁참	-9.2547
액	-9.25568
▁승리	-9.25611
▁자리	-9.25613
▁와	-9.25653
▁교체	-9.2567
긴	-9.25689
▁회장	-9.25734
▁논의	-9.25823
▁지금까지	-9.25893
보다는	-9.25939
▁나온다	-9.25954
▁변화	-9.26184
▁구매	-9.2632
▁암	-9.26325
▁나서	-9.26329
시키는	-9.26444
▁차례	-9.26453
▁생각한다	-9.26488
▁체험	-9.26495
▁0	-9.26627
▁2018	-9.26661
▁불법	-9.2669
슨	-9.26741
손	-9.2697
기관	-9.27003
▁한번	-9.27034
▁중단	-9.27044
되며	-9.27046
▁경우가	-9.27078
▁북한의	-9.27105
▁정상	-9.27165
▁보기	-9.27278
▁주변	-9.27348
▁상태	-9.27394
▁시절	-9.27437
▁지속	-9.27511
▁위해서는	-9.27512
향	-9.27604
▁장관	-9.27694
▁질	-9.27707
▁피부	-9.27772
▁구조	-9.27796
N	-9.27818
▁부담	-9.27847
기가	-9.27891
▁공간	-9.27929
▁중소기업	-9.27953
족	-9.28019
▁자연	-9.2808
l	-9.28097
년대	-9.28135
메	-9.28301
다는	-9.28319
으로부터	-9.28329
▁주로	-9.28354
년에	-9.28421
▁라는	-9.28821
▁전문가	-9.28845
▁대한민국	-9.28931
▁광	-9.28965
▁다소	-9.29014
▁해결	-9.29207
▁플레이	-9.29261
이란	-9.2934
합	-9.29364
▁핵	-9.29447
▁문제는	-9.2946
▁비롯한	-9.29525
죠	-9.29542
a	-9.29619
▁식	-9.29727
▁되면	-9.29766
▁관계	-9.29891
스타	-9.29986
▁책	-9.30076
TV	-9.30077
i	-9.30108
▁생	-9.30187
렸다	-9.30201
g	-9.30202
현지시간	-9.30219
▁작품	-9.3036
▁용	-9.30394
▁예상된다	-9.30435
은행	-9.30442
▁사실을	-9.30458
술	-9.30459
▁c	-9.30488
▁바탕으로	-9.30529
▁역사	-9.30592
▁순간	-9.3065
총	-9.30773
▁벌	-9.30938
▁1000	-9.30949
▁구단	-9.3102
▁강력한	-9.31026
O	-9.31038
▁인간	-9.31069
▁투	-9.31115
▁홍보	-9.31394
▁빠른	-9.31397
사를	-9.31493
▁상황이	-9.31523
H	-9.31552
공사	-9.31609
▁나왔다	-9.31619
▁홈	-9.317
▁없다는	-9.31812
▁맞춰	-9.32064
▁PC	-9.32072
한다고	-9.32115
▁적극	-9.32166
▁사건	-9.32292
▁H	-9.32383
겠다는	-9.32388
▁정보를	-9.32408
▁보호	-9.3261
▁그룹	-9.32764
(4	-9.32809
▁밤	-9.32812
▁디	-9.32819
▁입장	-9.32981
▁설립	-9.32989
▁이용해	-9.33014
하였다	-9.33048
E	-9.33051
▁자리를	-9.33121
▁의해	-9.33134
▁제한	-9.33172
▁평	-9.33226
충	-9.33228
▁월드컵	-9.3324
▁사상	-9.33305
(2	-9.33332
X	-9.33389
병원	-9.33475
▁변경	-9.33606
거리	-9.33693
▁귀	-9.34065
로서	-9.34212
▁넘어	-9.34234
때	-9.3427
있는	-9.34291
▁검토	-9.34304
하겠다는	-9.34332
▁디지털	-9.34347
▁글	-9.34378
40	-9.34446
▁이유로	-9.34543
▁인식	-9.34546
▁도움이	-9.34583
▁낮은	-9.34601
▁얘기	-9.34663
기에	-9.3491
cm	-9.34981
애	-9.34983
80	-9.34998
▁막	-9.35006
협회	-9.35114
▁보안	-9.35261
▁점에서	-9.35269
▁몸	-9.35299
▁종목	-9.35376
베	-9.35384
했는데	-9.35397
▁힘	-9.35582
▁여행	-9.35646
▁주민	-9.3572
▁종	-9.35827
대를	-9.35861
풍	-9.35871
없이	-9.35871
▁반드시	-9.35925
▁선수들이	-9.35929
▁스마트	-9.36009
▁민간	-9.36056
▁자유	-9.36219
▁우리나라	-9.36254
▁요구	-9.36285
▁할인	-9.36382
달러	-9.36385
▁보수	-9.36402
▁W	-9.3656
▁카드	-9.36588
력을	-9.36596
▁이달	-9.36599
하겠다	-9.36672
자를	-9.36674
▁통과	-9.36796
▁부상	-9.36801
폰	-9.36867
인지	-9.36869
▁기능을	-9.36918
▁이름을	-9.36933
염	-9.37014
▁보는	-9.37029
▁지정	-9.3705
▁L	-9.37092
▁2006	-9.37111
▁건강	-9.3723
축	-9.37241
라도	-9.37257
▁목	-9.37265
▁노력	-9.37304
▁씨	-9.37311
지고	-9.37315
▁경기도	-9.37324
▁관광	-9.37341
▁설명	-9.37363
▁시간을	-9.37394
▁직원	-9.37407
이닝	-9.3759
존	-9.37631
▁초반	-9.37685
▁결과를	-9.37797
블	-9.37809
19	-9.37834
그룹	-9.37839
▁검찰	-9.37856
▁단체	-9.37926
▁우려	-9.37957
▁대화	-9.37964
▁불구하고	-9.37976
뿐	-9.37987
사진	-9.37989
▁행정	-9.38026
▁직	-9.38066
▁특정	-9.38083
▁제공한다	-9.38112
▁300	-9.38188
되기	-9.38205
▁이벤트	-9.38218
▁자주	-9.38262
년생	-9.3831
▁문재인	-9.38377
친	-9.38396
▁관심이	-9.38428
▁의견을	-9.38429
택	-9.38466
▁회장은	-9.38476
▁야	-9.38522
▁확정	-9.38525
▁기준으로	-9.38644
익	-9.38743
▁종합	-9.38942
사회	-9.38953
한국	-9.38987
▁내부	-9.39094
▁70	-9.39139
황	-9.39161
500	-9.39164
회사	-9.39356
▁훈련	-9.39365
▁적이	-9.39443
▁협상	-9.39471
▁울산	-9.39525
위로	-9.39627
▁맞아	-9.39668
▁사장	-9.39796
▁사업을	-9.39808
▁스타	-9.39814
대회	-9.39879
▁아울러	-9.39883
11	-9.39967
지도	-9.39968
대표	-9.39973
▁일을	-9.40151
기로	-9.40241
플	-9.40246
▁나라	-9.403
▁데이터	-9.4035
▁있어서	-9.40355
▁존재	-9.40552
스포츠	-9.40573
-	-9.40592
▁예산	-9.40614
▁참가	-9.40788
사가	-9.40823
er	-9.4084
▁도전	-9.40851
▁망	-9.40856
▁없을	-9.40893
▁했지만	-9.40938
▁발표했다	-9.40939
▁모델	-9.40984
▁확보	-9.41131
▁그가	-9.41179
▁방침이다	-9.41247
▁시리즈	-9.41276
15	-9.41307
▁방안을	-9.41387
▁고용	-9.41425
▁시장에서	-9.41457
글	-9.41526
▁되지	-9.41591
V	-9.41607
렌	-9.4169
▁때문	-9.41698
▁만드는	-9.41826
까	-9.41913
▁안에	-9.41982
▁우승을	-9.42011
▁삼성전자	-9.42038
70	-9.42049
름	-9.42057
▁기관	-9.42099
▁기획	-9.42205
▁수술	-9.4222
전을	-9.42265
▁기술을	-9.42268
▁높다	-9.42295
▁마케팅	-9.42337
▁효과를	-9.42393
취	-9.42439
방송	-9.42448
촌	-9.42513
▁주장	-9.42606
가구	-9.42625
▁뉴욕	-9.42637
▁부분	-9.42799
▁2005	-9.42932
▁것에	-9.42985
▁전에	-9.43002
▁필요가	-9.43004
왔다	-9.43039
▁소비	-9.4304
▁창	-9.43075
기는	-9.43187
▁의료	-9.43265
▁언론	-9.43324
홍	-9.4338
세대	-9.43436
▁감독이	-9.43445
▁위험	-9.43553
▁사회적	-9.43559
님	-9.43632
▁인한	-9.43762
폭	-9.43902
▁최초로	-9.43989
▁V	-9.44192
▁하기	-9.44217
▁속에	-9.44381
곳	-9.44462
▁전용	-9.44521
▁셈이다	-9.44522
▁전망	-9.44539
별로	-9.44566
▁얼마나	-9.44647
▁보도했다	-9.44657
평가	-9.44766
▁판단	-9.44791
mm	-9.44821
▁연장	-9.4488
▁전력	-9.45006
▁끝에	-9.45238
▁돌	-9.45253
▁가입	-9.45445
▁것과	-9.45514
▁소개	-9.45646
(3	-9.45714
60	-9.45714
올	-9.45754
전에서	-9.45808
▁한국의	-9.45817
필	-9.45817
학교	-9.45866
▁새누리당	-9.45896
▁외부	-9.45912
▁원하는	-9.45959
▁득점	-9.4596
▁골프	-9.46028
있다	-9.46055
▁빈	-9.46065
▁상황을	-9.46065
하려는	-9.46092
▁표현	-9.46097
▁분야	-9.46103
▁즐길	-9.46152
▁올라	-9.46164
▁돈	-9.46261
▁꼭	-9.46289
▁사람은	-9.46324
금융	-9.46344
▁합의	-9.46418
▁버	-9.46476
▁전북	-9.46494
▁시민	-9.46535
▁투수	-9.46536
▁것입니다	-9.46674
(5	-9.46731
▁매년	-9.46749
케	-9.46798
▁국	-9.46885
▁전자	-9.46887
▁인정	-9.46921
▁기능	-9.46932
▁분양	-9.46935
▁프로젝트	-9.47006
명으로	-9.47135
▁비판	-9.47136
▁보이는	-9.47146
록	-9.47149
▁의미	-9.47159
▁배치	-9.47228
밀	-9.47402
상을	-9.47418
▁마을	-9.47455
▁맞는	-9.4754
▁보니	-9.47729
▁넘는	-9.47767
▁오픈	-9.47779
▁규제	-9.47933
▁이야기를	-9.47979
▁재정	-9.48092
돌	-9.48156
▁상당히	-9.48159
▁실패	-9.48203
득점	-9.4821
▁이번에	-9.48299
▁등록	-9.48322
▁복	-9.48353
책	-9.48377
▁가는	-9.48427
▁공공	-9.48483
▁준	-9.48537
▁실적	-9.48581
▁남북	-9.48591
n	-9.48597
▁나오는	-9.48685
▁전년	-9.48697
▁신고	-9.4873
맨	-9.48738
▁브라질	-9.48806
▁관	-9.48837
▁이유는	-9.48864
▁충분히	-9.48866
▁젊은	-9.48889
▁업체	-9.48893
16	-9.48954
▁규모의	-9.49023
▁경찰	-9.49068
환경	-9.49092
▁서울시	-9.49188
▁전쟁	-9.49227
갑	-9.49256
완	-9.49265
▁교통	-9.49293
▁훨씬	-9.49333
▁설정	-9.49438
▁이란	-9.4944
ing	-9.49451
시킬	-9.49562
다가	-9.49621
▁등장	-9.49633
▁눈에	-9.49638
▁하며	-9.49671
이하	-9.49812
▁비슷한	-9.49823
c	-9.49997
▁내려	-9.50001
b	-9.50041
▁되	-9.50163
▁종료	-9.50395
▁범	-9.5042
▁금지	-9.50456
▁중국의	-9.50519
▁기사	-9.50522
▁사용할	-9.50611
섭	-9.50631
▁반영	-9.50815
▁유통	-9.50825
▁한반도	-9.5085
▁발사	-9.50933
이었던	-9.50997
▁속에서	-9.5102
▁창업	-9.51101
▁쉽지	-9.5111
▁인근	-9.51145
▁루	-9.51257
라면	-9.51275
▁포함한	-9.51328
▁설계	-9.51367
▁병원	-9.51474
▁있었던	-9.51542
았다	-9.51624
▁하는데	-9.51632
▁전달	-9.51758
▁위반	-9.51767
▁연기	-9.51843
▁이명박	-9.51913
▁향	-9.51922
▁단지	-9.51938
함을	-9.51943
▁대규모	-9.51997
25	-9.52055
▁시설	-9.52118
조사	-9.52278
▁추천	-9.52309
▁제품을	-9.52343
▁열어	-9.52388
▁싶다	-9.52409
▁독	-9.52428
▁아주	-9.52457
▁중요하다	-9.52471
▁연간	-9.5248
▁방식으로	-9.52529
▁책임	-9.52583
▁희망	-9.52583
전자	-9.52598
▁기록한	-9.52622
▁예술	-9.52728
번째	-9.52792
▁수비	-9.52848
회의	-9.52895
▁걱정	-9.529
대학	-9.52943
위원장	-9.52983
▁늘	-9.52985
▁돈을	-9.53023
▁메	-9.53055
14	-9.53065
▁32	-9.53065
▁장기	-9.53082
▁완전히	-9.53175
▁누	-9.5322
al	-9.53255
▁영업	-9.53275
▁밀	-9.53276
▁선수가	-9.53279
▁그린	-9.53284
▁규모	-9.5342
차전	-9.5343
▁아래	-9.53491
▁장관은	-9.53508
▁평화	-9.53596
▁맞	-9.53654
▁신청	-9.53726
낸	-9.53755
▁태	-9.53772
▁나섰다	-9.53873
스는	-9.53874
▁라며	-9.53948
▁U	-9.54037
▁검사	-9.54109
▁따	-9.54168
시스템	-9.5418
▁밖에	-9.54208
▁경남	-9.54215
옥	-9.54292
▁유명	-9.54294
▁스페인	-9.54585
▁함	-9.54652
▁열고	-9.54674
▁개최	-9.5475
▁친구	-9.54778
▁직후	-9.54806
▁2019	-9.54819
개국	-9.54896
런	-9.54999
▁경험	-9.55004
▁2004	-9.55037
▁이같은	-9.55086
▁보장	-9.551
알	-9.55133
▁소비자	-9.55152
▁언급	-9.55157
▁못하는	-9.55159
했다는	-9.55208
▁대출	-9.55242
▁악	-9.55492
▁요청	-9.55557
▁역대	-9.55565
▁공장	-9.55751
▁꽃	-9.55768
머	-9.55783
▁전통	-9.55796
▁없고	-9.55851
▁강원	-9.55869
▁나선	-9.55882
▁도로	-9.55889
▁시각	-9.5589
▁남성	-9.5594
▁일자리	-9.55959
▁보통	-9.55994
삼	-9.56061
▁카메라	-9.56091
▁80	-9.56093
13	-9.56101
▁북한이	-9.56106
▁사전	-9.56256
▁라인	-9.56263
걸	-9.56275
슬	-9.56275
균	-9.56302
▁투입	-9.5643
▁개정	-9.56488
▁육성	-9.56494
▁커	-9.56523
▁새로	-9.56552
▁수도권	-9.56573
▁규정	-9.56607
▁활성화	-9.56638
▁호주	-9.56676
▁꾸준히	-9.56691
▁꿈	-9.56767
▁위기	-9.56774
r	-9.56841
▁행동	-9.56937
에게는	-9.56971
억원으로	-9.57003
▁지지	-9.57251
례	-9.57324
▁높이	-9.57333
▁절반	-9.57355
장이	-9.57357
▁기억	-9.57397
▁무대	-9.57402
▁말한다	-9.57464
▁빠르게	-9.57476
▁시작한	-9.57479
▁아니	-9.57515
페	-9.5752
지구	-9.57573
▁유치	-9.5764
▁네트워크	-9.57682
▁부족	-9.57696
▁전투	-9.57735
▁업계	-9.57743
자의	-9.57759
▁떠나	-9.5777
▁포함해	-9.57796
만큼	-9.57818
▁담	-9.57819
▁나와	-9.57869
▁나머지	-9.57939
▁보여	-9.57958
제를	-9.5807
▁밝힌	-9.58136
▁펀드	-9.58375
▁주식	-9.58389
▁진입	-9.5845
도시	-9.58477
17	-9.5848
▁채용	-9.58481
▁후보는	-9.58492
▁있지	-9.58534
▁나가	-9.58562
▁수원	-9.58565
▁지적	-9.58618
▁없다고	-9.58668
kg	-9.58845
련	-9.59071
▁자료	-9.59081
▁많아	-9.59111
침	-9.59139
▁전기	-9.59144
▁향상	-9.59203
사의	-9.59352
▁이탈리아	-9.59355
진다	-9.59414
▁위치한	-9.59587
함으로써	-9.59654
▁특수	-9.59665
착	-9.5972
▁이름	-9.59752
단계	-9.59816
▁어린이	-9.59853
주년	-9.59886
▁공사	-9.59893
▁발견	-9.59925
▁나오고	-9.59955
▁면	-9.60079
카드	-9.60183
▁등은	-9.60224
▁환자	-9.60228
헌	-9.60266
이기	-9.60284
▁야구	-9.60358
▁플랫폼	-9.60368
▁걸쳐	-9.60395
수가	-9.60402
▁확산	-9.60407
측	-9.60438
▁감사	-9.60441
▁연출	-9.60456
▁제공하는	-9.60502
▁베트남	-9.60557
▁위치	-9.60579
▁올렸다	-9.60587
다고	-9.606
▁단계	-9.60682
▁무려	-9.60695
▁새롭게	-9.60703
▁발표한	-9.60719
▁촬영	-9.60727
컵	-9.60797
시켰다	-9.60806
혁	-9.60827
▁타고	-9.60902
▁아들	-9.60915
감을	-9.60919
세기	-9.6095
▁대기업	-9.6102
▁그러면서	-9.61068
폐	-9.61083
▁보내	-9.61198
▁석	-9.61218
▁현대차	-9.61308
▁확장	-9.61372
▁아침	-9.61407
혈	-9.61451
한국시간	-9.61477
▁장비	-9.61491
리는	-9.61524
▁탄	-9.61525
▁크다	-9.61557
▁섬	-9.61578
▁회의	-9.61705
▁수행	-9.61759
▁배우	-9.61868
▁소재	-9.61877
▁제도	-9.61892
▁예방	-9.61907
▁당초	-9.6195
기간	-9.61965
▁폭	-9.62041
▁팀의	-9.62045
▁N	-9.62052
이기도	-9.62107
12	-9.62137
습	-9.62188
견	-9.62294
3%	-9.62389
▁접	-9.62517
사는	-9.62629
새	-9.62659
관계	-9.6267
벌	-9.62682
▁작업	-9.62701
▁시험	-9.6274
수를	-9.62757
▁가량	-9.62775
운동	-9.62798
▁개혁	-9.62803
18	-9.62811
▁정당	-9.62906
앤	-9.62917
효	-9.62935
으나	-9.62946
세를	-9.62956
협	-9.62992
d	-9.63015
▁활동을	-9.63155
▁한국은	-9.63162
▁완	-9.63186
▁기념	-9.63258
5000	-9.63267
농	-9.63315
▁계	-9.63354
▁앱	-9.63357
▁여름	-9.6338
서를	-9.63388
통신	-9.634
▁그냥	-9.63423
혜	-9.63427
▁해석	-9.63477
극	-9.63492
▁여야	-9.63524
▁부문	-9.63554
녀	-9.63566
률	-9.63615
▁상황이다	-9.6364
▁마음을	-9.63674
▁달성	-9.63692
▁것처럼	-9.63746
쪽	-9.6375
▁티	-9.63806
▁체	-9.63944
▁제안	-9.63953
▁효과가	-9.63981
▁창출	-9.64044
▁근무	-9.64063
▁자금	-9.64063
▁활약	-9.64144
▁관계자	-9.64183
▁시작으로	-9.64217
▁곧	-9.64273
▁10%	-9.64381
씨가	-9.64409
▁사이에	-9.64421
▁대해서도	-9.64485
▁중심	-9.64553
▁가능성을	-9.64564
▁뿐만	-9.64566
▁총리	-9.64594
▁고민	-9.64676
▁영어	-9.6472
▁35	-9.64737
▁싶은	-9.648
▁울	-9.64822
팅	-9.64882
▁뉴	-9.64944
▁호텔	-9.64972
▁더불어	-9.64984
▁외국	-9.65049
▁영입	-9.65079
▁일본의	-9.65081
누	-9.65084
▁봄	-9.65086
뿐만	-9.65097
▁위해서	-9.65159
곤	-9.65205
쿼터	-9.65238
▁선물	-9.65242
냐	-9.65383
▁팬	-9.65519
▁페	-9.65536
▁혹은	-9.65607
욱	-9.65612
▁e	-9.6571
▁완화	-9.65763
▁차지했다	-9.65763
▁철	-9.65808
▁시장에	-9.65829
▁유엔	-9.65857
▁사용자	-9.65888
▁수준	-9.65957
하라	-9.65987
▁형성	-9.66027
▁담당	-9.66058
▁준다	-9.66084
▁그림	-9.661
거래	-9.66131
▁투표	-9.66232
▁공격을	-9.66284
▁무기	-9.66293
조차	-9.6631
화를	-9.66339
▁음식	-9.66632
▁50%	-9.66659
차례	-9.6666
▁먹	-9.6677
▁씨는	-9.66785
▁실시	-9.668
▁000	-9.66815
▁합	-9.66853
▁이하	-9.66877
▁격	-9.66903
▁도움을	-9.66949
▁가정	-9.66957
▁그리	-9.66999
▁지구	-9.67002
자로	-9.67094
만달러	-9.67096
▁필	-9.67167
▁정치적	-9.6734
▁제기	-9.67385
▁전남	-9.67414
정부	-9.67452
▁분위기	-9.67522
연구소	-9.67593
▁우수	-9.67594
▁쓸	-9.67617
▁말이	-9.67622
세트	-9.67633
▁기반	-9.67689
쉬	-9.67839
▁지속적으로	-9.67843
▁사용하는	-9.67865
▁의사	-9.67923
▁목표	-9.67976
▁-	-9.67997
▁관련된	-9.68031
▁평가를	-9.68062
시킨	-9.68083
▁출연	-9.68161
▁이미지	-9.68233
쯤	-9.68256
공원	-9.68261
▁I	-9.68346
▁J	-9.68362
▁결혼	-9.68385
▁예측	-9.68463
▁딸	-9.68496
▁겸	-9.68555
▁이처럼	-9.68561
년에는	-9.6857
▁정리	-9.68575
▁슈퍼	-9.68582
▁O	-9.68601
▁오바마	-9.68607
제도	-9.68635
▁좋아	-9.68741
▁남은	-9.68826
▁하면서	-9.68862
▁아이폰	-9.68914
치는	-9.68932
▁게임을	-9.68939
▁했던	-9.68968
▁허용	-9.68986
▁회	-9.68993
▁홈페이지	-9.68997
▁경기에	-9.69077
귀	-9.69101
▁가까운	-9.69142
엘	-9.69166
▁적극적으로	-9.6918
하겠다고	-9.69199
▁이같이	-9.69212
키로	-9.69343
▁마치	-9.69356
으로서	-9.69402
건설	-9.69457
전에	-9.69493
위는	-9.69537
▁않으면	-9.69636
징	-9.69646
▁매일	-9.69723
▁휴대폰	-9.69753
▁혼	-9.69861
▁접근	-9.69867
성과	-9.70058
턴	-9.70074
▁의원이	-9.70095
▁외교	-9.70098
90	-9.70119
주택	-9.70183
칠	-9.70458
▁팀이	-9.70462
▁포인트	-9.70507
▁기회	-9.70664
▁둘	-9.70791
▁죽	-9.70899
클	-9.71072
먼	-9.71091
원으로	-9.71108
▁오래	-9.71132
▁이유	-9.71162
▁잔	-9.71172
▁작가	-9.71192
24	-9.71196
▁과학	-9.71202
com	-9.71224
▁제가	-9.71297
▁2003	-9.713
▁앞에서	-9.71337
▁Q	-9.71356
었던	-9.71409
"	-9.71434
▁한화	-9.7146
계획	-9.71472
문제	-9.71477
▁주가	-9.71664
▁회원	-9.71665
▁잘못	-9.71669
▁수요	-9.71704
▁경기가	-9.71712
스터	-9.71715
▁공무원	-9.71858
▁증가했다	-9.71971
들에	-9.72048
▁부인	-9.72106
▁처	-9.72174
▁해소	-9.72185
했기	-9.72194
▁상대적으로	-9.72218
▁지원을	-9.7225
▁테	-9.72288
▁갤럭시	-9.7231
▁기초	-9.72375
▁빨리	-9.72388
▁명의	-9.72403
▁혐의로	-9.72455
▁사장은	-9.7247
원을	-9.72484
▁들어가	-9.7254
▁악화	-9.72623
▁본다	-9.72661
력이	-9.72686
▁취업	-9.72734
▁대표적인	-9.7275
▁풍	-9.72793
▁우리의	-9.72824
▁뇌	-9.72846
▁대변인은	-9.7285
▁경찰은	-9.72876
▁답	-9.72892
▁CJ	-9.72903
▁미디어	-9.72917
▁기업의	-9.72941
2%	-9.72943
▁곳	-9.72964
▁2002	-9.72985
▁시대	-9.73043
▁초기	-9.73065
▁조치	-9.73071
▁기록하며	-9.73102
▁드라마	-9.73118
▁둔	-9.73137
an	-9.73167
▁미사일	-9.73192
월까지	-9.73198
▁검색	-9.73214
▁모습	-9.73225
▁항	-9.73276
▁발행	-9.7329
월에	-9.73304
▁이적	-9.73327
▁자체가	-9.73349
▁극	-9.73356
▁뜻을	-9.73373
▁대표가	-9.73388
▁점이	-9.73444
▁했습니다	-9.73449
▁어렵다	-9.73464
▁감독의	-9.73554
돈	-9.73571
람	-9.73594
버스	-9.73617
▁복지	-9.73643
▁결	-9.73655
▁코스	-9.73677
▁대표팀	-9.7375
▁바다	-9.73836
▁하이	-9.73892
▁축제	-9.73906
▁주력	-9.73964
▁곳이	-9.74047
▁매각	-9.74079
▁고려	-9.74144
▁이라는	-9.74188
싱	-9.74251
▁제시	-9.7431
보험	-9.74323
▁봉	-9.74362
▁많았다	-9.74372
▁주말	-9.74429
▁자산	-9.74434
▁현실	-9.74437
▁농	-9.74452
▁뛰어난	-9.74456
▁the	-9.74482
▁선두	-9.74524
슈	-9.74633
▁만들었다	-9.74639
▁홀	-9.74671
▁받지	-9.7476
▁반도체	-9.74827
▁만약	-9.74849
▁지금은	-9.74892
겠다고	-9.74917
▁법률	-9.74938
른	-9.74943
▁차단	-9.7499
▁우주	-9.75051
만원을	-9.75061
▁좋지	-9.75104
▁완료	-9.75184
▁형	-9.752
▁무료	-9.75235
▁보유	-9.75273
되	-9.75283
▁거듭	-9.75375
(6	-9.75594
압	-9.75623
▁승점	-9.75637
▁복귀	-9.75702
▁제출	-9.75708
다면	-9.75767
▁논란이	-9.75773
▁소설	-9.75791
▁항상	-9.75809
▁지도	-9.75917
▁작	-9.75925
리아	-9.75954
▁검찰은	-9.75984
▁나올	-9.76003
▁네이버	-9.76012
▁보도	-9.76019
▁공략	-9.76042
▁아이템	-9.76051
임을	-9.76058
학년	-9.76086
▁사망	-9.76087
▁운	-9.76167
▁모아	-9.76209
▁90	-9.7624
▁20%	-9.76289
▁만족	-9.76307
▁대체	-9.76329
▁등에서	-9.7634
▁내일	-9.76368
▁성과를	-9.76412
▁인구	-9.76429
▁주고	-9.76544
비를	-9.76548
▁주문	-9.76569
▁차이가	-9.76691
킹	-9.76787
▁반복	-9.76815
안타	-9.76851
▁점검	-9.76894
▁갖춘	-9.76928
▁당장	-9.77001
▁패스	-9.77091
생활	-9.77094
▁제외한	-9.7719
▁마음	-9.77205
▁과정을	-9.7722
▁출발	-9.77242
▁전화	-9.77263
검	-9.77276
▁투어	-9.77291
▁게다가	-9.77303
ar	-9.77312
▁구체적인	-9.77357
▁찾는	-9.77412
▁존	-9.77412
▁신경	-9.77445
시키고	-9.77466
▁표	-9.77468
지방	-9.77496
▁드	-9.77567
▁들고	-9.77583
▁시장의	-9.77642
선수	-9.77678
▁클럽	-9.77695
니까	-9.77737
or	-9.77755
▁환	-9.7776
▁컴퓨터	-9.77808
됐고	-9.77838
▁증가한	-9.7784
▁내용	-9.77852
▁지나	-9.7788
명은	-9.77884
▁압박	-9.77899
▁독립	-9.77918
▁구현	-9.77978
▁겨울	-9.78034
▁길이	-9.78187
▁공을	-9.78203
선을	-9.78248
▁인터뷰에서	-9.78274
▁탈	-9.78306
200	-9.78312
▁전면	-9.78317
▁절대	-9.78329
▁국민의	-9.78344
▁지하	-9.78362
▁시기	-9.78492
식을	-9.78542
▁임명	-9.78555
▁버스	-9.78578
▁원래	-9.7858
▁가치	-9.78584
▁홍콩	-9.78624
▁주인공	-9.78665
▁소화	-9.78674
▁인하	-9.78675
▁앞에	-9.78691
▁애플	-9.78784
▁긴	-9.78836
f	-9.78844
증권	-9.78849
▁질문	-9.78852
▁절	-9.78872
▁힘든	-9.78879
▁성공했다	-9.7892
▁새벽	-9.78939
▁대중	-9.78955
▁후보자	-9.79045
▁30%	-9.7908
골을	-9.79111
▁불과	-9.79286
▁추가로	-9.79289
▁대만	-9.79324
▁있다면	-9.79336
투어	-9.79339
전략	-9.79349
k	-9.79408
▁인력	-9.7941
▁차원에서	-9.79466
6%	-9.79483
▁동기	-9.79501
!	-9.79559
국가	-9.79578
연구원	-9.79639
▁하나의	-9.7965
▁사는	-9.79673
▁검증	-9.7969
▁확인할	-9.79704
▁굉장히	-9.79741
▁구글	-9.79786
▁챔피언	-9.79789
한다면	-9.79866
▁어제	-9.79913
▁소통	-9.79949
▁체결	-9.80072
ed	-9.80086
▁얼굴	-9.80188
▁동부	-9.80208
▁위협	-9.80272
▁이용할	-9.80283
▁숙	-9.80352
21	-9.80434
▁피해를	-9.80434
미국	-9.80441
▁터	-9.80452
서는	-9.8049
원은	-9.80525
언더파	-9.80651
▁곡	-9.80696
타를	-9.80757
발전	-9.80828
▁전해졌다	-9.80859
▁없	-9.80885
▁청년	-9.80931
▁시장을	-9.80953
▁적은	-9.80955
▁승	-9.8097
▁가까이	-9.80977
▁뜻	-9.8098
(19	-9.80993
▁미리	-9.81003
▁데뷔	-9.81033
▁비용	-9.8109
단지	-9.81096
과학	-9.81117
▁증시	-9.81222
▁쓴	-9.81282
▁부품	-9.81319
▁숨	-9.81374
▁프리미엄	-9.81414
▁상반기	-9.81432
제품	-9.81518
▁군사	-9.81578
▁향해	-9.81582
▁생각이	-9.81587
▁끝난	-9.81602
▁상태다	-9.81641
상품	-9.81779
▁주도	-9.81797
▁33	-9.81893
▁두산	-9.81921
▁통일	-9.81932
▁원칙	-9.8195
▁대해서	-9.81956
▁어머니	-9.81961
▁상위	-9.81969
대가	-9.81999
▁청소년	-9.82008
▁범죄	-9.82024
흥	-9.82031
▁통화	-9.82046
▁이해	-9.82049
▁보험	-9.82108
억달러	-9.82116
▁분위기를	-9.8213
▁생각을	-9.82141
도로	-9.82232
▁경북	-9.82268
▁금리	-9.82275
▁거리	-9.82296
▁가동	-9.82304
틀	-9.82397
코리아	-9.82407
▁엘	-9.82479
딩	-9.82546
▁열심히	-9.82547
▁급	-9.8259
일에는	-9.82658
▁선언	-9.82667
▁응원	-9.82687
▁한미	-9.82703
▁자신을	-9.82735
▁바란다	-9.82792
▁어린	-9.82801
▁운용	-9.82907
▁협의	-9.82913
▁못해	-9.82928
▁헤	-9.82936
위원	-9.82979
▁불러	-9.8299
▁홈런	-9.83035
▁동물	-9.83064
▁발생한	-9.83099
▁발굴	-9.83151
해왔다	-9.83152
튼	-9.83207
▁상담	-9.83236
0	-9.83256
▁계약을	-9.83306
객	-9.83307
▁왼쪽	-9.83311
▁무엇보다	-9.83326
릭	-9.83396
▁최소	-9.83462
▁가입자	-9.83471
23	-9.83506
▁대폭	-9.83528
대상	-9.83624
▁AI	-9.83627
려고	-9.83679
몰	-9.83751
▁성과	-9.83788
▁진행된다	-9.83809
▁진행한다	-9.8382
벽	-9.83849
▁자리에서	-9.83852
법인	-9.83891
▁사람들은	-9.84028
▁메이저리그	-9.84065
▁진단	-9.84075
▁공유	-9.84146
▁경선	-9.84251
리스	-9.84355
원에	-9.84447
▁때마다	-9.84449
▁나이	-9.84505
▁작성	-9.84554
아이	-9.84561
▁인물	-9.8457
▁최다	-9.84611
됐습니다	-9.84622
▁저는	-9.84633
힐	-9.84643
낼	-9.8466
▁만난	-9.84671
▁폐지	-9.84683
가량	-9.84706
▁노래	-9.8473
▁스타일	-9.84741
I	-9.84749
▁맥	-9.84804
▁주제로	-9.84846
▁대통령과	-9.84846
▁최대한	-9.84848
▁무역	-9.84852
▁쓰는	-9.84855
▁골을	-9.84896
톤	-9.84909
적이고	-9.85068
9%	-9.85106
척	-9.85136
룡	-9.85146
잡	-9.85153
▁패션	-9.85256
▁서버	-9.85293
(0	-9.85295
▁슈팅	-9.8532
▁소리	-9.85373
▁특별한	-9.85387
▁대책	-9.85421
▁의심	-9.85562
▁국립	-9.85566
이면	-9.85623
구조	-9.85695
▁의견	-9.857
▁시스템을	-9.85707
▁구입	-9.8576
▁순위	-9.85824
▁가구	-9.85853
▁비가	-9.85855
▁교회	-9.85881
혀	-9.85899
▁국회의원	-9.859
원이	-9.85972
▁공부	-9.85983
▁가능	-9.85998
▁과정	-9.86
▁특	-9.86027
▁긴급	-9.86028
▁상황에	-9.86058
▁방어	-9.86065
▁출범	-9.86068
▁담은	-9.86091
것	-9.86118
▁내린	-9.86216
▁니	-9.86262
값	-9.86271
▁길을	-9.86278
▁늘었다	-9.86285
정치	-9.86289
▁만한	-9.86353
▁일대	-9.86451
지수	-9.86519
특	-9.8656
▁직업	-9.86562
▁떨어진	-9.86566
▁누구나	-9.8657
/	-9.86603
▁품질	-9.86607
▁수많은	-9.86612
▁평소	-9.8662
▁나무	-9.86628
▁이때	-9.86634
▁노출	-9.86651
▁웹	-9.86707
▁들었다	-9.86719
▁계획을	-9.86726
스러운	-9.86802
▁측	-9.8681
▁프로그램을	-9.86829
▁전문가들은	-9.8683
▁거부	-9.86837
쇼	-9.86838
밖에	-9.86853
▁폐	-9.86871
▁알려진	-9.86902
▁총선	-9.86921
시티	-9.86936
u	-9.8695
▁중에	-9.86981
▁발언	-9.86983
▁불안	-9.86996
▁근	-9.87005
학과	-9.87029
냈다	-9.87043
▁자원	-9.87051
▁목표로	-9.87063
▁돌파	-9.87067
▁노동	-9.87089
le	-9.87134
▁신문	-9.87167
▁100%	-9.87228
▁여당	-9.87234
억원의	-9.87347
▁페이스북	-9.87448
’(	-9.87454
텔레콤	-9.87484
▁사이트	-9.87547
▁45	-9.87559
▁외에도	-9.87576
▁로봇	-9.87599
공장	-9.87612
부문	-9.87664
▁시장은	-9.87668
▁400	-9.87708
안전	-9.8778
▁방안	-9.87806
▁구성된	-9.87841
으	-9.87844
▁폭발	-9.87856
대의	-9.87892
▁중요	-9.87904
득	-9.87972
▁측면에서	-9.87988
▁매장	-9.8799
▁질문에	-9.88034
▁스킬	-9.88058
▁여부를	-9.88079
▁손을	-9.88185
이라면	-9.88185
힌	-9.88215
분야	-9.88231
▁북미	-9.8824
재단	-9.88307
▁조기	-9.88309
혼	-9.8833
▁팀을	-9.88377
▁방법	-9.88378
▁센터	-9.88393
▁부여	-9.88427
셔	-9.88432
▁증	-9.88442
▁비교	-9.88455
▁소환	-9.88478
▁류	-9.88493
▁행복	-9.88639
▁사업자	-9.88675
▁변화를	-9.88683
▁기기	-9.88714
▁한국인	-9.88766
▁비즈니스	-9.8879
▁노조	-9.88793
▁나갈	-9.88794
▁내에서	-9.88797
▁연계	-9.88854
받은	-9.88907
▁낸	-9.88946
▁다음달	-9.88948
듯	-9.88985
▁타자	-9.89017
▁분야에서	-9.89044
▁칼	-9.89111
▁김영	-9.89154
▁명이	-9.8917
▁상장	-9.89188
▁신설	-9.89193
▁결제	-9.89222
▁축소	-9.89312
▁능력	-9.89316
▁잠	-9.89334
▁전개	-9.89497
▁그래도	-9.89519
잔	-9.89524
▁하나로	-9.89525
움	-9.89583
▁유도	-9.89585
공간	-9.89617
▁시점	-9.89663
▁대기	-9.89697
홀	-9.89728
▁행위	-9.89774
마저	-9.89788
마을	-9.89812
▁제거	-9.89837
▁활용해	-9.8985
▁대회에서	-9.89886
▁모습이	-9.89897
▁변호사	-9.89919
▁아예	-9.89926
▁대북	-9.8997
▁제조	-9.89987
1%	-9.90107
▁FC	-9.90108
▁보상	-9.9013
▁요즘	-9.90175
▁설명이다	-9.90203
▁겁니다	-9.90273
안을	-9.90275
▁구속	-9.90306
▁거뒀다	-9.90331
칭	-9.90349
▁학	-9.90351
▁X	-9.90362
춘	-9.90367
▁부분이	-9.90416
세계	-9.90435
탁	-9.9044
▁프	-9.90474
▁수정	-9.90515
▁음	-9.90535
▁원내대표	-9.90545
%	-9.90564
▁프리	-9.90565
▁실현	-9.90624
▁오랜	-9.90646
▁잡아	-9.90691
▁다르다	-9.90692
경영	-9.90696
▁소득	-9.90723
▁때까지	-9.90756
▁구간	-9.90772
▁밝혀	-9.90784
▁국정	-9.90793
▁등과	-9.90806
▁포항	-9.90806
▁이용한	-9.90838
▁채택	-9.90861
▁빠져	-9.9098
▁낙	-9.91025
연구	-9.91153
▁내용이	-9.91162
4%	-9.91323
▁지역에서	-9.91343
▁방향	-9.91346
스가	-9.91379
▁측면	-9.91386
▁버디	-9.91456
on	-9.91517
▁레이	-9.91519
▁경계	-9.9152
하면서도	-9.91521
26	-9.91549
▁만들기	-9.91585
기준	-9.91643
점으로	-9.91712
▁정확한	-9.91738
기구	-9.91808
수는	-9.9181
▁지분	-9.91841
▁국방부	-9.91921
만명	-9.9197
▁사람의	-9.91985
▁고급	-9.91987
▁총리는	-9.92049
▁위에	-9.92056
▁사과	-9.92102
▁후보가	-9.92108
스의	-9.9212
협력	-9.92137
▁능력을	-9.92148
▁질환	-9.9216
▁개막	-9.92212
29	-9.92215
▁이들이	-9.92222
▁야당	-9.9224
▁조합	-9.92243
▁전주	-9.923
▁마친	-9.92379
▁트	-9.92431
▁있는지	-9.92442
▁비상	-9.9245
▁혜택을	-9.92453
▁사실이	-9.92516
▁저녁	-9.92529
▁기존의	-9.92547
었고	-9.92562
려는	-9.92574
▁선수들의	-9.92632
▁잡	-9.92646
▁그때	-9.92667
▁인증	-9.92719
▁이른바	-9.92732
▁벗어나	-9.92743
▁얼마	-9.92802
▁강남	-9.92832
▁반발	-9.92839
▁지역의	-9.9285
▁오른쪽	-9.92895
▁안보	-9.92906
됐던	-9.92932
전문	-9.92966
▁컬러	-9.9298
▁앵커	-9.92991
▁책임을	-9.93007
▁매체	-9.93019
▁분석했다	-9.93057
▁수준의	-9.93101
▁임금	-9.93143
▁접수	-9.93204
궁	-9.93297
▁150	-9.93396
▁패배	-9.9341
해온	-9.93436
▁땅	-9.93473
웅	-9.93493
▁우려가	-9.93501
▁일상	-9.93572
▁개편	-9.93596
▁역전	-9.93659
▁경고	-9.93787
▁채권	-9.93802
▁그만큼	-9.93811
▁코치	-9.93817
▁올린	-9.93818
27	-9.93837
▁쿠	-9.93914
v	-9.93979
▁않도록	-9.93979
▁엔진	-9.94042
▁테러	-9.94126
으면서	-9.94184
▁아버지	-9.94201
▁책을	-9.94222
▁버전	-9.94238
▁밝혔습니다	-9.94243
▁건축	-9.9426
▁세트	-9.94329
▁양국	-9.94353
▁소프트웨어	-9.94401
7%	-9.94415
▁선임	-9.94466
▁수준으로	-9.94475
▁가격이	-9.94503
▁단독	-9.94529
▁표시	-9.9457
경기에서	-9.94603
회를	-9.94658
100	-9.94699
▁문학	-9.94741
▁불리는	-9.94759
었습니다	-9.948
▁나눠	-9.94806
시대	-9.94867
▁삶을	-9.94875
느냐	-9.94898
인치	-9.94923
먹	-9.94963
일간	-9.94969
▁늘어난	-9.94977
▁행	-9.95067
▁대부분의	-9.95071
▁최선을	-9.95076
법을	-9.9509
▁제주도	-9.9516
▁속도	-9.95164
▁나설	-9.95172
▁출	-9.95217
▁올해는	-9.95238
▁위원장은	-9.95275
▁부정	-9.95288
▁경험을	-9.95306
?	-9.9533
▁기반으로	-9.95347
▁취임	-9.954
▁수용	-9.95437
엽	-9.95505
▁머	-9.95519
▁참석한	-9.95561
▁점차	-9.95565
▁얻을	-9.95621
▁부처	-9.95745
▁파악	-9.95751
자들이	-9.95831
▁제외	-9.9586
▁도쿄	-9.95864
▁본격적인	-9.95883
처리	-9.95926
▁동영상	-9.95929
▁적지	-9.9593
▁미국과	-9.95934
J	-9.95934
▁자신	-9.95934
▁덕분에	-9.95935
▁베이징	-9.95953
▁강하게	-9.95961
28	-9.95988
(20	-9.96004
▁34	-9.96087
31	-9.96093
in	-9.96106
▁특허	-9.9615
▁신뢰	-9.9618
▁전부	-9.96185
▁집단	-9.96222
▁의혹	-9.96229
▁파괴	-9.9625
▁경우에는	-9.96318
▁후원	-9.96339
▁국내외	-9.96384
▁참석	-9.96402
닝	-9.96494
1)	-9.96502
▁기회가	-9.96512
▁가능성도	-9.96559
▁세대	-9.96693
▁수석	-9.96722
▁식품	-9.96741
▁출마	-9.96744
▁안내	-9.96829
▁쉬	-9.96861
▁심사	-9.9689
▁엄청난	-9.96902
▁주제	-9.96925
▁잠시	-9.96953
▁푸	-9.9697
▁이로써	-9.97008
▁곧바로	-9.97043
▁정권	-9.97046
▁크기	-9.97057
▁기업이	-9.97057
▁달려	-9.97066
검사	-9.97086
22	-9.9712
량이	-9.9712
▁정신	-9.97149
▁본인	-9.97158
금리	-9.97235
▁부진	-9.97291
▁재개	-9.97293
▁언제	-9.97297
▁강원도	-9.97324
팔	-9.97446
소득	-9.97454
육	-9.97473
펀드	-9.97482
▁카페	-9.97533
en	-9.97535
▁깊은	-9.97565
됩니다	-9.97571
▁36	-9.97608
▁눈길을	-9.97848
▁조작	-9.9786
▁공천	-9.97862
▁마감	-9.97915
▁이들의	-9.97915
▁지역에	-9.97945
▁보이지	-9.97948
▁콜	-9.97957
▁조사를	-9.98071
▁받는다	-9.98094
▁행사를	-9.98098
콘	-9.98244
▁브	-9.98248
선거	-9.98274
▁올려	-9.98319
▁알려져	-9.98379
kr	-9.98383
해진	-9.98419
시부터	-9.98424
▁동의	-9.98428
활동	-9.98437
▁가격은	-9.98536
▁실무	-9.98576
▁의지를	-9.98658
업계	-9.98662
어요	-9.98665
▁특징이다	-9.98724
▁에서	-9.98794
▁사진을	-9.98886
▁집행	-9.98922
▁정책을	-9.98933
관광	-9.9894
▁마쳤다	-9.98942
참	-9.98945
▁의회	-9.9895
탕	-9.9897
▁혐의	-9.9899
▁제재	-9.9903
▁종교	-9.99053
더라도	-9.99069
▁취	-9.99091
행사	-9.99126
▁노력을	-9.99171
▁문제에	-9.99181
▁점점	-9.99182
▁초청	-9.9919
▁빅	-9.99198
▁화면	-9.99269
▁수상	-9.99282
하다는	-9.99308
▁했고	-9.99323
지지	-9.99356
▁앞선	-9.99362
▁알아	-9.99423
▁남아	-9.9951
▁임대	-9.9952
▁심각한	-9.99548
물을	-9.99602
▁달하는	-9.99622
▁육	-9.99646
▁법안	-9.99658
▁했는데	-9.99759
▁방식	-9.99784
개로	-9.99794
▁지명	-9.99811
면서도	-9.99886
▁자극	-9.9996
레이	-9.99992
▁시장이	-10.0007
▁깨	-10.0009
▁휴	-10.0014
랜드	-10.0014
Y	-10.0014
▁자녀	-10.0016
▁어깨	-10.0017
▁수익	-10.0021
▁슈	-10.0028
▁언어	-10.0032
▁부대	-10.0033
▁뭐	-10.0037
▁장애인	-10.004
▁모집	-10.0042
문을	-10.0043
▁히	-10.0045
▁완성	-10.0048
나는	-10.0054
▁과제	-10.0054
▁듣고	-10.0054
▁현금	-10.0059
▁아프리카	-10.0059
65	-10.0069
▁적극적인	-10.0073
▁의미를	-10.0078
▁레알	-10.0078
▁말고	-10.0079
▁중간	-10.008
풀	-10.0081
▁의한	-10.0082
▁미세먼지	-10.0086
FC	-10.0087
개혁	-10.0087
▁성인	-10.0089
▁열린다	-10.0092
▁달라	-10.0093
신문	-10.0093
▁클래식	-10.0095
▁수립	-10.0108
▁커피	-10.0111
▁풀어	-10.0113
▁머리	-10.012
▁클라우드	-10.0125
▁있으면	-10.0129
▁성적	-10.013
▁접속	-10.013
▁심지어	-10.013
비용	-10.0134
하려	-10.0136
▁5000	-10.0136
▁이상이	-10.0137
사와	-10.0138
▁노인	-10.0139
라인	-10.0139
▁있어야	-10.0144
▁의미가	-10.0145
닉	-10.0146
이라도	-10.015
▁업종	-10.0151
▁취소	-10.0152
▁분리	-10.0159
▁친환경	-10.016
▁【	-10.0161
▁효과	-10.0163
▁학습	-10.0164
휴	-10.0168
▁외에	-10.0169
▁어려움을	-10.0172
▁쇼	-10.0181
▁사람을	-10.0183
▁실천	-10.0187
웨이	-10.0188
▁경우도	-10.0189
기자	-10.0189
▁피해자	-10.019
▁개입	-10.0192
▁하반기	-10.0193
▁부과	-10.0202
▁약간	-10.0204
▁갑자기	-10.021
씨의	-10.0212
우리	-10.0212
▁정도의	-10.0226
▁긴장	-10.0228
▁계기로	-10.0229
▁노무현	-10.023
▁조건	-10.0246
▁권력	-10.025
▁하게	-10.0251
▁가치를	-10.0252
▁아름다운	-10.0254
▁조절	-10.0255
▁회담	-10.0257
▁충돌	-10.0259
▁술	-10.0264
▁충남	-10.0271
▁평가했다	-10.0272
빙	-10.0273
▁블랙	-10.0277
▁활용한	-10.0278
분의	-10.0278
▁굴	-10.0282
45	-10.0283
지로	-10.0284
▁모드	-10.0288
▁삼성전자는	-10.0289
▁캐나다	-10.0292
▁반응을	-10.0293
준다	-10.03
▁등도	-10.0303
최	-10.0303
▁잡고	-10.0316
▁서울대	-10.0317
▁관련한	-10.0318
▁미만	-10.0318
▁상태에서	-10.0325
▁자동	-10.0331
▁만들고	-10.0333
▁내고	-10.0334
▁취지	-10.0334
▁내내	-10.0339
▁엄	-10.0341
이상	-10.0342
▁FTA	-10.0343
▁참고	-10.0352
▁추세	-10.0353
▁연습	-10.0354
국제	-10.0356
수록	-10.0357
▁의장	-10.036
▁주목	-10.0365
갔다	-10.0366
▁원정	-10.0368
▁누가	-10.0371
▁엔	-10.0374
▁GS	-10.0377
▁덜	-10.0377
▁국회에서	-10.0382
▁바꿔	-10.0386
얼	-10.0387
▁몸을	-10.0389
▁안정	-10.0389
▁플레이오프	-10.0389
▁공정	-10.0389
▁여기서	-10.0393
▁개발한	-10.0393
▁내에	-10.0401
솔	-10.041
지에	-10.041
▁하늘	-10.0413
▁형태로	-10.0415
대학교	-10.0416
▁경쟁력	-10.0427
▁전망했다	-10.0428
나무	-10.0435
▁있으나	-10.0437
리바운드	-10.044
▁이벤트를	-10.0444
▁느낄	-10.0444
(7	-10.0447
▁구분	-10.0449
▁모여	-10.0454
판매	-10.0455
돼야	-10.0465
▁s	-10.0468
드는	-10.0469
▁솔루션	-10.0474
▁방법을	-10.0477
▁지자체	-10.0478
▁비난	-10.0482
▁정식	-10.0484
▁퍼	-10.0489
▁무릎	-10.049
▁김정은	-10.0493
랄	-10.0496
▁동료	-10.0499
▁연구원은	-10.0506
▁갈등	-10.0507
됐으며	-10.051
▁사태	-10.051
▁영웅	-10.0514
▁진보	-10.0516
▁휴식	-10.0528
▁보완	-10.0531
▁힘이	-10.0533
▁운행	-10.0533
▁이제는	-10.0543
▁노선	-10.0545
▁골키퍼	-10.0548
▁글을	-10.055
▁마찬가지로	-10.055
▁공기	-10.055
▁빼	-10.0553
▁이행	-10.0562
해도	-10.0563
쓰	-10.0566
핑	-10.0567
00	-10.0567
▁교류	-10.0573
스를	-10.0577
▁보유한	-10.0579
▁자유한국당	-10.0581
▁개별	-10.059
▁매수	-10.0595
십	-10.06
찰	-10.0602
쳤다	-10.0603
▁논	-10.0611
▁잡았다	-10.0617
▁무슨	-10.0623
▁점도	-10.063
여명	-10.063
▁않게	-10.0631
▁입주	-10.0631
장에서	-10.0633
▁사람들	-10.0638
승을	-10.0638
▁으로	-10.0638
▁이중	-10.0639
단은	-10.0641
▁힘입어	-10.0642
▁인권	-10.0646
▁성적을	-10.0647
▁공모	-10.0647
▁감염	-10.0647
300	-10.0647
▁있	-10.0649
▁통해서	-10.0653
겨	-10.0653
실점	-10.0665
지가	-10.0666
▁따로	-10.0667
▁남편	-10.0667
▁기록을	-10.0669
▁원내대표는	-10.067
▁조치를	-10.0671
▁세력	-10.0672
▁CEO	-10.0673
▁부부	-10.0675
▁테스트	-10.0675
▁상호	-10.0678
▁바람	-10.0684
▁몰아	-10.0685
▁3000	-10.0688
▁기계	-10.069
▁최신	-10.0695
▁너	-10.0695
▁돌아가	-10.0705
탑	-10.0706
▁논란	-10.0706
▁청구	-10.0709
▁교사	-10.0713
▁그쳤다	-10.0714
▁대결	-10.0718
▁정비	-10.0719
▁옥	-10.072
차전에서	-10.0721
▁못할	-10.0723
보고	-10.0724
에만	-10.073
48	-10.0731
▁사안	-10.0732
h	-10.0735
▁휘	-10.0737
▁최초	-10.0739
▁성남	-10.0741
조정	-10.0743
벨	-10.0744
어야	-10.075
▁것인지	-10.0753
55	-10.0755
▁추정	-10.0758
▁빛	-10.0762
▁관계를	-10.0762
▁졸업	-10.0765
▁아내	-10.0769
▁월드	-10.0789
▁걸어	-10.0794
▁지원하는	-10.0794
▁런던	-10.0797
만대	-10.0797
▁첨단	-10.0801
▁특검	-10.0804
중국	-10.0813
▁차세대	-10.0818
둥	-10.082
하나	-10.0824
▁분류	-10.0827
▁보여주는	-10.0832
▁뮤지컬	-10.0833
▁처벌	-10.0838
▁KB	-10.0838
▁빌	-10.0843
▁주전	-10.0843
빛	-10.0844
▁책은	-10.0851
▁살아	-10.0853
▁체력	-10.0857
▁국정원	-10.0861
▁받	-10.0861
▁나아가	-10.0862
▁끌어	-10.0863
2000	-10.0868
▁세계적인	-10.0868
▁떠	-10.0868
▁모양	-10.0877
▁삶의	-10.0879
같은	-10.0881
▁방지	-10.0881
▁때도	-10.0885
www	-10.0887
리를	-10.0888
▁업데이트	-10.0891
▁연주	-10.0895
▁정치권	-10.0896
들어	-10.0916
▁슬	-10.0918
▁반응	-10.0922
▁진화	-10.0922
▁대거	-10.0923
▁데다	-10.0924
▁운영하는	-10.0931
▁결과가	-10.0936
▁예약	-10.0937
▁전세계	-10.0938
▁일은	-10.0939
▁좋겠다	-10.0941
위가	-10.0948
텍	-10.0948
▁수비수	-10.0949
장치	-10.0949
회말	-10.0954
장관	-10.0957
▁활약을	-10.0957
▁등판	-10.0959
▁지도자	-10.096
▁낼	-10.0965
▁배터리	-10.0965
조직	-10.0966
▁승부	-10.0969
▁배출	-10.0971
▁역할	-10.0971
센	-10.0972
▁비판했다	-10.0974
▁사이에서	-10.0976
▁타격	-10.0976
▁획득	-10.0977
▁샤	-10.0982
▁심판	-10.0984
연맹	-10.0986
▁of	-10.099
▁콘텐츠를	-10.0993
▁펼쳐	-10.0996
▁현행	-10.1
▁카카오	-10.1001
▁써	-10.1001
타점	-10.1002
co	-10.1006
▁결승	-10.1008
▁유리	-10.1011
자와	-10.1012
▁뒷	-10.102
▁의식	-10.102
▁재산	-10.102
▁그리스	-10.1026
▁FA	-10.1026
▁끝	-10.1028
▁이상을	-10.1033
▁들어서	-10.1038
▁작업을	-10.1038
▁장소	-10.104
해주는	-10.1041
▁옮겨	-10.1044
▁이내	-10.1044
▁대처	-10.1049
▁분명히	-10.1054
▁당연히	-10.1056
샤	-10.1058
었지만	-10.1065
▁배경	-10.1069
▁기타	-10.1071
▁부지	-10.1073
▁보입니다	-10.1074
▁지식	-10.1077
▁연봉	-10.1078
겠지만	-10.1081
본부	-10.1087
▁현재까지	-10.1094
▁시인	-10.1095
▁자랑	-10.1096
▁디스플레이	-10.1099
▁개방	-10.1103
텔	-10.1106
▁본선	-10.1109
▁끌고	-10.111
▁괴	-10.1114
▁공항	-10.1117
▁실행	-10.1127
한테	-10.1129
▁계산	-10.1129
▁복합	-10.1132
월에는	-10.1139
▁선수는	-10.1142
▁실험	-10.1144
▁성능	-10.1146
▁치열한	-10.1154
▁부담을	-10.1155
▁2001	-10.116
▁예비	-10.1163
라운드에서	-10.1176
장으로	-10.1176
▁SNS	-10.1177
상태	-10.118
이던	-10.118
▁엄마	-10.118
회장	-10.118
▁영역	-10.1181
▁블루	-10.1187
▁통산	-10.1195
▁옛	-10.1198
▁아니냐는	-10.1201
국민	-10.1201
▁리포트	-10.1201
▁지켜	-10.1204
▁▷	-10.1206
타수	-10.1206
▁좌	-10.1207
자원	-10.1207
▁통제	-10.1208
8%	-10.1212
▁직전	-10.1214
▁냈다	-10.1215
▁부담이	-10.1215
▁했다고	-10.1219
▁유명한	-10.1221
▁부족한	-10.1221
▁●	-10.1223
▁챔피언스리그	-10.1229
▁검	-10.123
대는	-10.1241
▁저장	-10.1247
▁자료를	-10.1248
▁염	-10.1257
▁쌓	-10.1264
▁답변	-10.1266
▁수집	-10.1269
▁혼자	-10.127
▁모른다	-10.127
▁플레이어	-10.1273
여명이	-10.1277
▁생존	-10.1277
▁비교적	-10.128
▁나타나	-10.1293
짜리	-10.13
▁이래	-10.1301
▁사퇴	-10.1304
께	-10.1313
▁이용자	-10.1318
기획	-10.1319
기록	-10.132
▁상당한	-10.1324
▁문을	-10.1327
re	-10.1328
▁있었지만	-10.133
▁짧은	-10.133
▁마음이	-10.133
▁잉글랜드	-10.1331
800	-10.1332
▁답했다	-10.1332
홈런	-10.1337
▁점은	-10.1338
▁캠페인	-10.1338
▁자리에	-10.1339
▁투자를	-10.1344
자금	-10.1344
▁요리	-10.1348
▁맹	-10.135
젠	-10.1351
▁시작된	-10.1354
구역	-10.1354
밥	-10.1356
▁보유하고	-10.1361
▁내리	-10.1379
it	-10.1382
▁날씨	-10.1391
주기	-10.1392
▁토지	-10.1397
▁유저	-10.1404
▁레벨	-10.1408
▁발휘	-10.1414
해졌다	-10.142
▁의지	-10.1421
▁응	-10.1424
▁목소리를	-10.1425
▁채널	-10.1429
▁누적	-10.1431
▁약속	-10.1435
▁양성	-10.1435
▁경험이	-10.1436
▁농구	-10.1438
▁과연	-10.1442
▁기대된다	-10.1442
▁막판	-10.1444
모델	-10.1451
▁38	-10.1451
▁철학	-10.1452
▁경제적	-10.1453
▁여기	-10.1458
▁총장	-10.1462
운영	-10.1462
▁위로	-10.1464
▁파리	-10.1466
PC	-10.147
▁파워	-10.1473
▁고위	-10.1474
▁본격적으로	-10.1481
▁캠프	-10.1484
▁멕시코	-10.1488
▁의도	-10.149
으니	-10.1493
▁예를	-10.1493
▁승인	-10.1504
▁아무	-10.1506
▁외교부	-10.1509
멸	-10.1509
이어서	-10.1512
▁단순히	-10.1518
▁호남	-10.152
▁뿌리	-10.1521
▁것이란	-10.1524
39	-10.1525
틴	-10.1525
▁이어질	-10.1527
스와	-10.153
▁넣어	-10.153
▁인프라	-10.1534
▁등급	-10.1535
▁협조	-10.1541
▁생명	-10.1541
▁제공하고	-10.1543
▁합류	-10.1543
▁성향	-10.1547
▁심리	-10.1549
▁유출	-10.1556
▁추격	-10.1557
▁운전	-10.1559
▁워싱턴	-10.1561
▁이끌어	-10.157
나라	-10.1574
▁정부와	-10.1574
▁꾸	-10.1575
▁대변인	-10.1577
퇴	-10.1581
▁기온	-10.1585
▁비밀	-10.1585
함에	-10.1586
▁투자자	-10.1587
베이	-10.1587
굴	-10.1588
▁강제	-10.1592
등급	-10.1597
▁42	-10.1598
▁교환	-10.1598
▁하자	-10.16
▁선보였다	-10.16
▁쪽	-10.1605
▁적응	-10.1606
▁접촉	-10.1607
중인	-10.1608
허	-10.1611
▁금액	-10.1614
치를	-10.1614
협의회	-10.1616
▁요금	-10.1616
자산	-10.1617
▁힘들	-10.1623
▁비중이	-10.163
▁동반	-10.1633
▁목적	-10.1637
받	-10.1641
▁물질	-10.1642
▁멀티	-10.1646
시에	-10.165
▁아이들	-10.165
▁매매	-10.1651
▁뉴시스	-10.1655
at	-10.1657
▁내렸다	-10.166
▁이유가	-10.1661
▁폴	-10.1661
▁독자	-10.1664
▁환율	-10.1667
▁문제로	-10.1668
▁축	-10.1669
CC	-10.167
▁공격수	-10.1674
▁주석	-10.1676
▁37	-10.168
행위	-10.1683
▁측정	-10.169
니다	-10.1692
▁부분을	-10.1693
▁이슈	-10.1693
▁계열사	-10.1694
▁관심	-10.1694
▁이전에	-10.1695
▁보이	-10.1695
▁에이스	-10.1695
▁나타냈다	-10.1696
금을	-10.1698
▁사람들의	-10.1699
원의	-10.17
▁대로	-10.1701
▁점이다	-10.1701
▁표준	-10.1703
▁기부	-10.1706
▁내용은	-10.1709
▁붙	-10.1709
▁미니	-10.171
▁됩니다	-10.1711
▁태국	-10.1711
▁제목	-10.1712
▁기자가	-10.1713
▁항목	-10.1714
▁입고	-10.1716
웠다	-10.1718
축제	-10.1719
▁곳에	-10.1724
▁감정	-10.1726
▁LTE	-10.1728
▁실내	-10.1729
하려고	-10.1737
49	-10.1738
▁필수	-10.1747
▁극복	-10.1748
▁고려해	-10.1751
▁휴대전화	-10.1753
▁뒤를	-10.1758
▁KIA	-10.1758
▁크로스	-10.1765
▁꼽	-10.1768
▁EU	-10.1771
▁없지만	-10.1775
▁바이오	-10.1776
▁부모	-10.1777
▁포기	-10.1778
▁자세한	-10.1779
사건	-10.1783
▁상징	-10.1784
▁현장에서	-10.1789
▁주의	-10.179
▁빠진	-10.1793
▁차지	-10.1794
일본	-10.1794
▁전략을	-10.1799
점이	-10.1807
▁기자회견을	-10.1814
▁체제	-10.1816
▁팀은	-10.1821
밍	-10.1822
▁진짜	-10.1836
▁원인	-10.1836
▁아니면	-10.1839
▁이끄는	-10.1841
▁잡은	-10.1843
넷	-10.1843
따	-10.1843
▁주행	-10.1844
▁안에서	-10.1844
주가	-10.1844
▁당선	-10.1844
▁지상	-10.1844
대에	-10.1844
계약	-10.1846
▁매입	-10.1846
▁대사	-10.1848
▁최근에는	-10.185
▁생각하는	-10.185
▁근거	-10.185
▁충격	-10.1851
▁아니고	-10.1852
▁전까지	-10.1853
▁KBS	-10.1857
▁패턴	-10.1857
▁바르셀로나	-10.1857
▁이어졌다	-10.1857
▁쓰고	-10.1868
‘	-10.1868
▁눈이	-10.1869
▁한층	-10.1871
IT	-10.1871
▁이정	-10.1873
렬	-10.1875
▁단말기	-10.1878
▁폭력	-10.188
음을	-10.1881
▁신용	-10.1884
▁북한은	-10.1885
회초	-10.1886
이번	-10.1886
▁m	-10.1887
▁은퇴	-10.1888
▁파견	-10.1889
째	-10.1893
▁방문해	-10.1894
▁않	-10.1896
▁세월호	-10.1897
호선	-10.1901
▁기여	-10.1902
▁의견이	-10.1904
▁그를	-10.1904
▁캐	-10.1906
▁한정	-10.1906
콜	-10.1909
▁묘	-10.1914
릿	-10.1919
▁진행된	-10.1921
▁떨어져	-10.1926
▁말씀	-10.1926
주고	-10.1927
▁메뉴	-10.1929
▁수십	-10.1931
▁경쟁력을	-10.1932
▁지사	-10.1933
▁간의	-10.1934
▁급등	-10.1936
▁변화가	-10.1938
▁상품을	-10.1946
장비	-10.1946
▁들여	-10.1953
▁냉	-10.1955
▁일이다	-10.1956
▁내용의	-10.1956
교회	-10.1957
▁선보인다	-10.1962
마리	-10.1964
▁작전	-10.1964
▁덕	-10.1975
▁탈락	-10.1975
▁65	-10.198
▁충북	-10.1981
▁처음이다	-10.1982
▁직장	-10.1984
▁쪽으로	-10.1984
케이	-10.1985
능	-10.1986
▁밟	-10.1987
▁차지하는	-10.1987
▁부실	-10.1987
600	-10.1988
▁찬성	-10.1991
꽃	-10.1991
▁민족	-10.1992
▁방침	-10.1993
▁마리	-10.1995
식품	-10.1995
▁수가	-10.1998
데이	-10.1999
▁성격	-10.2001
▁첼시	-10.2003
99	-10.2005
▁회장이	-10.2009
▁뛰어	-10.2014
▁이르는	-10.2018
▁받게	-10.2022
▁높아	-10.2035
▁상당	-10.2036
보호	-10.2037
▁아동	-10.2038
프로	-10.2039
응	-10.2039
▁가득	-10.2041
47	-10.2042
▁공감	-10.2044
▁사례	-10.2044
▁등이다	-10.2049
▁아베	-10.205
▁커뮤니티	-10.205
우는	-10.2063
▁탄생	-10.2064
율이	-10.2064
▁에어	-10.2065
▁박사	-10.2072
▁결코	-10.2078
▁제품은	-10.2078
▁예선	-10.2079
질환	-10.208
400	-10.2083
▁중반	-10.2083
▁사용해	-10.2086
▁미국이	-10.2087
▁공약	-10.2093
▁근육	-10.2101
엄	-10.2102
비가	-10.2102
▁허가	-10.2105
▁프로야구	-10.2105
▁상승세를	-10.2106
▁못한다	-10.2106
▁최초의	-10.2106
▁판결	-10.2107
▁크	-10.2113
56	-10.2113
▁도중	-10.2116
린다	-10.2116
하려면	-10.2126
▁저자는	-10.2128
▁세금	-10.2129
▁문서	-10.2131
▁지하철	-10.2132
▁맞서	-10.2132
리가	-10.2133
▁활	-10.2135
▁한국당	-10.2136
▁허리	-10.2139
시험	-10.2141
읍	-10.2155
죽	-10.2156
▁원전	-10.2165
패를	-10.2166
▁떨어졌다	-10.217
▁소형	-10.2174
700	-10.2176
▁색	-10.2177
▁강조	-10.218
▁선박	-10.2185
▁40%	-10.2185
▁지시	-10.2187
▁스토리	-10.2188
46	-10.2189
▁수요가	-10.219
큐	-10.219
▁전부터	-10.2194
더니	-10.2195
▁유일한	-10.2198
▁파트너	-10.2198
▁본사	-10.2202
보는	-10.2211
▁위원장	-10.2213
▁부활	-10.2213
▁한때	-10.222
▁유로	-10.2223
▁진영	-10.2224
▁얻은	-10.2227
▁패키지	-10.2231
▁형태	-10.2237
▁한국과	-10.2237
▁유입	-10.2245
▁줄어들	-10.2245
▁고통	-10.2245
▁퇴	-10.2246
▁장애	-10.2247
▁각국	-10.2249
▁법인	-10.2253
▁곳은	-10.2256
▁경우는	-10.2257
▁비교해	-10.226
▁특유의	-10.2261
▁높게	-10.2262
여개	-10.2265
항공	-10.2266
▁미술	-10.2268
▁혐의를	-10.2271
종합	-10.2271
▁코리아	-10.2272
▁한국에서	-10.2272
▁있음을	-10.2274
▁이사	-10.2274
▁근로자	-10.2276
▁재판	-10.2278
▁단기	-10.2279
▁타이	-10.2282
콤	-10.2282
체계	-10.2283
▁충전	-10.2286
가격	-10.2287
▁높였다	-10.2289
▁놓	-10.229
▁듯한	-10.229
▁철도	-10.2292
기능	-10.2296
▁제일	-10.2298
(10	-10.2298
▁경기는	-10.2304
▁주거	-10.2304
▁숲	-10.2305
▁비전	-10.2305
좌	-10.2307
is	-10.2309
35	-10.2311
률이	-10.2314
▁절감	-10.232
▁자본	-10.232
▁장면	-10.2322
▁요소	-10.2323
▁앞세워	-10.2325
ch	-10.2326
▁자전거	-10.2326
▁클	-10.2327
▁임기	-10.2328
▁착용	-10.2331
▁차기	-10.2332
▁그간	-10.2334
▁화려한	-10.2337
대책	-10.2339
▁정의	-10.2343
수사	-10.2343
▁김민	-10.2344
▁하겠다	-10.2351
없는	-10.2356
▁와인	-10.2359
▁작품을	-10.2359
▁않기	-10.2361
간의	-10.2362
▁대화를	-10.2363
▁국내에서	-10.2364
였고	-10.2364
33	-10.2365
▁끼	-10.2366
▁말해	-10.2366
▁기대를	-10.2366
▁김성	-10.2367
▁얻어	-10.2368
▁건립	-10.237
▁업그레이드	-10.2371
▁끊	-10.2372
▁이익	-10.2374
감이	-10.2374
오는	-10.2376
칼	-10.2377
▁다리	-10.2378
▁증권	-10.2378
세력	-10.2379
▁출석	-10.2379
▁솔	-10.2381
사업자	-10.2381
연합	-10.2388
▁승부를	-10.2393
▁대한항공	-10.2395
▁MS	-10.2401
생명	-10.2403
▁120	-10.2404
군의	-10.2407
유플러스	-10.2409
▁탑재	-10.2413
▁중동	-10.2418
▁마드리드	-10.2422
▁인생	-10.2424
자인	-10.2425
흐	-10.2425
44	-10.2426
▁넘게	-10.2427
▁선수단	-10.2428
GB	-10.2436
▁사랑을	-10.2441
▁흑	-10.2445
▁그러	-10.2448
생산	-10.2448
▁소송	-10.2453
▁탓에	-10.2454
▁입을	-10.2457
▁되기	-10.2461
72	-10.2463
ic	-10.2466
렉	-10.2469
치료	-10.2472
헤	-10.2472
▁품	-10.2472
▁매출액	-10.2482
▁방향으로	-10.2482
동안	-10.2487
▁선전	-10.2488
▁경기력	-10.2491
▁임시	-10.2494
▁타율	-10.2494
관련	-10.2497
▁보여준다	-10.2499
▁모임	-10.2503
군은	-10.2504
▁부회장	-10.2506
▁눈을	-10.2513
▁600	-10.2519
칸	-10.2524
푸	-10.2526
▁참여한	-10.2527
룩	-10.2528
상의	-10.2531
▁둘러싼	-10.2537
▁의무	-10.2542
▁음성	-10.2542
▁항공	-10.2543
▁없습니다	-10.2545
▁미국은	-10.2546
▁공공기관	-10.2549
맥	-10.2555
▁읽	-10.2555
▁개의	-10.2557
뉴	-10.2558
▁블	-10.2559
▁위기를	-10.256
▁치료를	-10.256
▁소유	-10.2563
▁영업이익	-10.2564
▁사건을	-10.2564
받아	-10.2565
▁특징	-10.2567
▁MBC	-10.2568
▁찾은	-10.2571
▁다수	-10.2573
▁이끌	-10.2577
▁무료로	-10.2582
et	-10.2589
64	-10.259
▁리드	-10.2594
▁북측	-10.2595
주를	-10.2595
감독	-10.2599
▁시술	-10.2605
▁제공할	-10.2605
▁밥	-10.2606
에너지	-10.2609
됐지만	-10.261
▁그나마	-10.2612
로운	-10.2613
▁통상	-10.262
▁역사를	-10.2621
펜	-10.2622
▁김태	-10.2623
▁혈	-10.2627
▁규모가	-10.2629
▁기자입니다	-10.263
▁섭취	-10.2631
▁점수	-10.2632
섬	-10.2633
스키	-10.2636
▁집계됐다	-10.2638
▁늘고	-10.264
▁지원한다	-10.264
방식	-10.264
▁화재	-10.2641
▁슛	-10.2642
▁먹고	-10.2648
▁번역	-10.2649
▁여의도	-10.265
▁41	-10.2651
▁구상	-10.2651
▁토트넘	-10.2652
여행	-10.2652
천원	-10.2656
▁헌법	-10.2656
▁관광객	-10.2657
75	-10.266
▁훈련을	-10.2663
▁남부	-10.267
▁부분은	-10.2671
▁연극	-10.2675
▁이어지는	-10.268
▁평양	-10.2681
▁신제품	-10.2682
▁장착	-10.2683
활	-10.2684
▁맨유	-10.2684
량을	-10.2689
▁말하는	-10.2691
▁부상으로	-10.2691
만한	-10.2692
▁사이버	-10.2695
▁결과에	-10.2702
▁개념	-10.2706
▁무선	-10.271
▁세부	-10.2713
▁선수들은	-10.2714
▁소개했다	-10.2714
제가	-10.2718
▁앞둔	-10.272
세가	-10.2721
▁국가대표	-10.2724
▁벌어진	-10.2729
복지	-10.2731
▁농업	-10.2732
▁보인	-10.2737
▁우수한	-10.2739
훈련	-10.2739
▁목표를	-10.2742
▁관람	-10.2746
▁결정을	-10.2747
▁상금	-10.2748
▁내다봤다	-10.275
▁끝까지	-10.2752
▁긍정적인	-10.2756
▁아무리	-10.2758
▁발생하는	-10.276
▁진출을	-10.2761
▁아니었다	-10.2761
▁임원	-10.2761
▁논리	-10.2764
우스	-10.2765
▁중국은	-10.2768
자회담	-10.2771
셀	-10.2774
간다	-10.2776
▁화장품	-10.2776
67	-10.2777
▁보관	-10.2781
▁어디	-10.2781
66	-10.2781
혹	-10.2784
▁시청	-10.2785
▁보급	-10.2789
▁동원	-10.2792
▁기술이	-10.2793
▁민주주의	-10.2802
▁맞은	-10.2803
▁맛	-10.2804
▁초대	-10.2805
▁안정적인	-10.2809
▁해양	-10.281
▁이미지를	-10.281
▁담긴	-10.2813
▁단순	-10.2813
시키기	-10.2816
뜨	-10.2817
하다고	-10.2819
죄	-10.2821
룸	-10.2821
▁진행되는	-10.2823
▁틀	-10.2828
펠	-10.283
화가	-10.2833
묘	-10.2838
리고	-10.2843
들로	-10.2844
자들은	-10.2844
▁펼쳤다	-10.2845
▁거둔	-10.2845
▁지배	-10.2848
▁있을지	-10.2853
▁범위	-10.2854
▁모색	-10.2854
▁만화	-10.2856
장과	-10.286
▁이라크	-10.2861
▁제정	-10.2861
▁39	-10.2866
▁지진	-10.2866
▁더불어민주당	-10.2867
▁논문	-10.287
드리	-10.2871
▁줄여	-10.2875
▁당내	-10.2876
▁진행하고	-10.2878
(8	-10.2879
→	-10.2882
▁편이다	-10.2884
▁해군	-10.2886
▁55	-10.289
▁현상	-10.2894
▁찾기	-10.2897
▁개설	-10.2902
▁43	-10.2907
조선	-10.2909
▁신체	-10.2911
▁줄었다	-10.2912
▁산하	-10.2912
데다	-10.2913
▁수준이다	-10.2915
트리	-10.2916
자들의	-10.292
▁보일	-10.292
순위	-10.2921
▁만날	-10.2922
연대	-10.2922
▁맨	-10.2925
▁정상회담	-10.2931
▁의혹을	-10.2932
▁사기	-10.2933
▁신인	-10.2936
▁그렇지	-10.2937
▁활용할	-10.2941
▁아닌가	-10.2942
▁전술	-10.2944
▁2020	-10.2944
패로	-10.2947
접	-10.2953
▁비행	-10.296
▁통증	-10.296
▁손흥민	-10.2963
▁최저	-10.2963
▁평창	-10.2966
▁제휴	-10.2966
▁멤버	-10.2967
57	-10.2969
▁집권	-10.2978
▁누구	-10.298
▁사업에	-10.2986
▁돌려	-10.2988
▁실력	-10.2992
▁챔피언십	-10.2992
▁높여	-10.2992
▁평균자책점	-10.2997
▁명예	-10.3002
▁흐름을	-10.3004
▁초과	-10.3008
04	-10.3008
▁곳에서	-10.301
▁부탁	-10.3011
▁태도	-10.3011
컬	-10.3013
▁공개했다	-10.3014
혁신	-10.3015
▁애플리케이션	-10.3018
▁5%	-10.3022
캐	-10.3025
▁마련했다	-10.3025
▁네덜란드	-10.3025
▁도발	-10.3027
기와	-10.3027
▁몬스터	-10.3028
사고	-10.3028
▁실시간	-10.3029
빌	-10.3033
2)	-10.3034
▁청문회	-10.3037
▁먹는	-10.3037
▁참여하는	-10.3041
▁미국에서	-10.3043
소리	-10.3044
▁김종	-10.3044
▁물가	-10.3052
▁부각	-10.3054
▁상승했다	-10.3054
2%)	-10.3054
▁원장은	-10.3057
▁지난주	-10.3058
뉴스	-10.306
▁찬	-10.3061
받는	-10.3062
▁풀이된다	-10.3067
▁차별	-10.3067
거든요	-10.3071
▁in	-10.3071
▁인원	-10.3077
▁지점	-10.3078
▁품목	-10.3079
단을	-10.308
▁열었다	-10.3083
니아	-10.3086
▁고정	-10.3086
▁출입	-10.3087
59	-10.3088
▁나오지	-10.3097
덴	-10.3098
▁테마	-10.3102
▁성장을	-10.3103
▁알게	-10.3108
▁출장	-10.3112
▁데이터를	-10.3113
▁경주	-10.3114
오픈	-10.3117
▁나선다	-10.3119
▁말이다	-10.3119
▁시티	-10.3121
▁맡고	-10.3121
3000	-10.3123
▁별로	-10.3124
장에	-10.3125
▁도착	-10.3131
만이	-10.3132
▁오르	-10.3133
자리	-10.3137
▁가서	-10.3139
▁모르는	-10.3147
5%	-10.3147
▁독도	-10.3148
▁분위기가	-10.3148
공연	-10.3149
▁느낌	-10.3149
▁선수들	-10.315
▁중심의	-10.3154
레스	-10.316
▁있었고	-10.316
▁힘들다	-10.316
▁지표	-10.3163
▁마지막으로	-10.3164
▁지닌	-10.3166
▁대표의	-10.3166
상황	-10.3172
▁주기	-10.3177
▁가수	-10.3177
측은	-10.318
▁통계	-10.318
▁이틀	-10.3185
▁주자	-10.3187
▁리더	-10.3192
▁그것이	-10.3203
사로	-10.3206
구를	-10.3207
▁시즌을	-10.3208
▁웃	-10.3209
▁향한	-10.3212
▁화학	-10.3213
▁미군	-10.3217
▁IP	-10.3219
▁대해선	-10.3221
려면	-10.3223
▁오브	-10.3223
▁막기	-10.3224
▁성공한	-10.3225
▁시작해	-10.3227
▁조명	-10.3238
▁선수로	-10.3242
▁류현진은	-10.3246
▁성명	-10.3247
▁찍	-10.3247
▁토론	-10.3247
▁흐	-10.3251
▁선출	-10.3253
▁빚	-10.3254
▁심의	-10.3256
▁흘러	-10.3258
▁감시	-10.326
▁분노	-10.3263
▁호흡	-10.3265
▁않지만	-10.3265
▁얼	-10.3267
▁법무부	-10.3269
논	-10.3269
플레이	-10.327
만으로	-10.327
▁환영	-10.3271
▁점수를	-10.3273
명에	-10.3274
69	-10.3276
▁않았지만	-10.3276
▁화이트	-10.3277
능력	-10.3277
▁드러냈다	-10.3279
▁지속적인	-10.3281
▁경력	-10.3283
▁규모로	-10.3284
▁그들의	-10.3288
하라고	-10.3289
였지만	-10.3291
▁꿈을	-10.3291
까지는	-10.3292
▁기능이	-10.3294
▁택시	-10.3298
】	-10.3299
▁선진국	-10.3302
▁심장	-10.3303
▁밑	-10.3306
▁맞고	-10.3306
▁숫자	-10.3307
▁감소했다	-10.331
자동차	-10.331
▁없기	-10.3312
~20	-10.3316
▁메시지	-10.3317
▁수준을	-10.3317
36	-10.3318
▁씨가	-10.332
▁관객	-10.332
▁메인	-10.3322
▁가을	-10.3322
▁토대로	-10.3323
▁결정했다	-10.3327
▁옷	-10.3327
▁의원의	-10.3331
기기	-10.3332
▁부르	-10.3336
▁도심	-10.3338
▁양측	-10.3342
Q	-10.335
▁식으로	-10.335
▁쉬운	-10.3352
▁선고	-10.3353
▁까	-10.3353
▁밀어	-10.3355
▁살고	-10.3358
▁쳐	-10.3359
▁꽤	-10.336
▁기대하고	-10.3361
▁융합	-10.3362
▁보낸	-10.3364
▁의사를	-10.3366
▁앞으로도	-10.3366
닥	-10.3373
▁봤다	-10.3376
▁신임	-10.3382
▁70%	-10.3385
▁사정	-10.3385
▁법적	-10.3388
▁협약	-10.3388
▁고전	-10.3389
▁여러분	-10.3389
▁쌀	-10.339
▁케이	-10.3391
▁떨어지는	-10.3392
▁뿐이다	-10.3392
루수	-10.3394
▁침해	-10.34
현대	-10.3401
▁녹	-10.3401
만원으로	-10.3403
▁자국	-10.3405
팬	-10.3406
▁얻고	-10.3406
▁그래픽	-10.3407
▁것인가	-10.341
▁일정을	-10.3411
▁죄	-10.3412
▁들어갔다	-10.3413
예술	-10.3414
▁수익성	-10.3415
▁싶어	-10.3421
▁지수	-10.3424
성장	-10.3428
▁AP	-10.3431
▁갖추고	-10.3433
▁축하	-10.3436
▁손상	-10.3438
▁드러나	-10.3438
체험	-10.3438
▁여론	-10.344
시장에서	-10.344
젤	-10.3442
900	-10.3443
▁재미	-10.3443
▁드러났다	-10.3445
▁최소화	-10.3445
▁있으니	-10.3446
5%)	-10.3446
심사	-10.3448
하고자	-10.3449
▁남녀	-10.345
▁사건이	-10.3451
통합	-10.346
▁이것이	-10.3462
▁지연	-10.3463
▁짜	-10.3465
▁시는	-10.3465
▁김동	-10.3468
▁마치고	-10.3472
▁당일	-10.3478
▁좌우	-10.348
▁최고위원	-10.3481
종의	-10.3482
▁감각	-10.3484
▁놀	-10.3488
▁44	-10.3488
▁안드로이드	-10.349
37	-10.3493
▁증거	-10.3495
▁미래를	-10.3495
▁요구하는	-10.3497
팩	-10.3497
▁추첨	-10.3523
▁얘기를	-10.3524
▁업무를	-10.3525
랩	-10.3527
▁합병	-10.3532
▁금메달을	-10.3533
▁민주당은	-10.3534
▁잘못된	-10.3536
▁이스라엘	-10.3537
▁제시했다	-10.3538
성은	-10.3538
전쟁	-10.3539
▁할머니	-10.3539
▁바람에	-10.354
시민	-10.3543
장의	-10.3546
▁능력이	-10.3546
▁상하이	-10.3549
▁궁	-10.3551
▁개통	-10.3554
아웃	-10.3555
▁자연스럽게	-10.3558
▁코스피	-10.3558
▁부분에	-10.3559
▁선수를	-10.3559
프로그램	-10.3561
▁쇼핑	-10.3563
05	-10.3563
▁매도	-10.3565
▁강연	-10.3567
졌고	-10.3569
▁않을까	-10.357
▁가스	-10.3571
▁추진하고	-10.3577
▁많	-10.3577
▁발매	-10.3578
▁인간의	-10.3582
▁강도	-10.3583
▁절차를	-10.3583
▁말한	-10.3584
▁맡은	-10.3588
▁미치는	-10.359
▁가졌다	-10.3594
클럽	-10.3597
▁이곳	-10.3601
▁그렇다면	-10.3602
1%)	-10.3604
▁중계	-10.3604
▁강릉	-10.3605
▁요인	-10.3605
▁김정	-10.3606
▁정확히	-10.3607
과정	-10.361
▁밀려	-10.3612
▁부시	-10.3615
▁말았다	-10.3615
▁순매수	-10.3616
▁예고	-10.3616
인이	-10.3617
연패	-10.3621
▁레드	-10.3621
▁희생	-10.3622
38	-10.3623
▁세상을	-10.3626
▁편성	-10.3627
▁무장	-10.3631
▁전세	-10.3632
꾼	-10.3634
▁깊이	-10.3635
▁이사회	-10.3638
▁짓	-10.364
▁조언	-10.3642
▁맞게	-10.3642
▁위성	-10.365
짐	-10.3652
▁침체	-10.3655
ri	-10.3661
내는	-10.3664
▁안철수	-10.3665
▁정작	-10.3668
▁셈	-10.3669
▁싱가포르	-10.3671
▁때부터	-10.3672
▁원장	-10.3672
▁말까지	-10.3677
▁발생할	-10.3677
▁기록하고	-10.3679
앙	-10.3689
▁체포	-10.369
▁강경	-10.3694
▁방식을	-10.3694
▁메시지를	-10.3695
소를	-10.3695
▁연대	-10.3695
▁극대화	-10.37
▁보스	-10.3704
축구	-10.3705
▁바이	-10.3708
th	-10.3708
억원에	-10.3714
▁조사됐다	-10.3714
▁경매	-10.3716
▁비록	-10.3722
▁충분한	-10.3723
▁형식	-10.3726
▁48	-10.3729
▁행정부	-10.373
▁느낌을	-10.3732
▁서민	-10.3734
▁800	-10.3734
▁인공지능	-10.3734
▁여부	-10.3734
▁케이블	-10.3736
▁입은	-10.3737
네요	-10.374
34	-10.3742
▁질병	-10.3742
▁워	-10.3744
▁장르	-10.3744
▁진정한	-10.3748
▁소장	-10.3749
88	-10.3755
▁달한다	-10.3756
▁내달	-10.3758
▁인류	-10.3758
제로	-10.376
▁김진	-10.3765
▁불과하다	-10.3765
▁연휴	-10.377
▁석유	-10.377
▁생활을	-10.3776
8000	-10.3778
▁늘어	-10.3779
▁시범	-10.3779
0%)	-10.3783
43	-10.3786
▁반대로	-10.3787
42	-10.3788
▁즉시	-10.3789
▁현안	-10.379
86	-10.379
▁프리미어리그	-10.3795
비는	-10.3796
▁공포	-10.3797
자료	-10.38
▁흡수	-10.38
▁좋아하는	-10.3803
▁터키	-10.3805
▁맞이	-10.3807
▁가슴	-10.3808
▁야권	-10.381
▁높	-10.381
토록	-10.3813
▁중국과	-10.3816
el	-10.3817
▁생각하고	-10.3818
▁지휘	-10.3819
▁회장의	-10.3819
럼	-10.382
▁이끌었다	-10.3821
▁분명	-10.3825
▁to	-10.3829
▁이동통신	-10.3831
닷컴	-10.3836
천만	-10.3838
▁가능성은	-10.384
▁공개된	-10.384
분석	-10.3842
▁다섯	-10.3843
념	-10.3844
▁구체적으로	-10.3847
▁실점	-10.3847
63	-10.3852
실에서	-10.3853
대출	-10.3855
▁보냈다	-10.3857
▁겪고	-10.386
당한	-10.3861
▁평생	-10.3865
▁개성	-10.3868
▁업	-10.3869
▁무조건	-10.3869
▁잇따라	-10.3871
▁등장하는	-10.3871
▁증명	-10.3875
▁통보	-10.3877
▁흔들	-10.3878
▁메시	-10.3879
점슛	-10.3884
▁뜨거운	-10.3886
함이	-10.3886
스럽다	-10.3887
▁법정	-10.3896
▁타선	-10.3905
▁않았	-10.3905
욕	-10.3906
58	-10.3907
다운	-10.3915
▁입학	-10.3918
▁벽	-10.3921
es	-10.3922
▁입증	-10.3924
▁주관	-10.3924
납	-10.3925
코스	-10.3925
▁힐	-10.3931
▁시위	-10.3932
끼	-10.3933
명과	-10.3936
딜	-10.3946
연승을	-10.3954
▁작동	-10.3956
▁분야의	-10.3957
▁양상	-10.3958
▁몰	-10.3959
▁규모는	-10.396
규모	-10.3962
개사	-10.3962
단이	-10.3966
▁당분간	-10.3971
▁정기	-10.3972
▁침	-10.3976
▁기분	-10.3984
기금	-10.3984
놓고	-10.3985
▁아마	-10.3985
부장	-10.399
▁없었던	-10.3991
▁풍부한	-10.3992
▁이론	-10.3992
명에게	-10.3993
▁전략적	-10.3994
▁2~3	-10.3995
▁생긴	-10.3995
여명의	-10.3996
▁재료	-10.3997
사무소	-10.3998
▁인도네시아	-10.3999
▁회사는	-10.4
▁탈출	-10.4002
음악	-10.4005
지요	-10.4005
적이다	-10.4006
▁청약	-10.4006
▁미칠	-10.4009
▁원작	-10.401
▁아는	-10.4011
데요	-10.4013
▁있을까	-10.4015
▁경쟁을	-10.4021
▁매달	-10.4021
▁LCD	-10.4021
▁상상	-10.4021
▁견제	-10.4025
▁나를	-10.4026
▁입장이다	-10.4027
▁스트레스	-10.4031
▁비핵화	-10.4031
▁모두가	-10.4035
▁양산	-10.4035
하다가	-10.4037
▁후보를	-10.4037
▁영상을	-10.4044
▁초등학교	-10.4045
되자	-10.4045
▁이게	-10.4047
▁트렌드	-10.4048
▁연말	-10.4049
51	-10.4049
▁올라가	-10.4049
▁운영하고	-10.4053
▁내야	-10.4053
▁워낙	-10.4054
▁매출이	-10.4055
▁중소	-10.4056
롱	-10.4057
지기	-10.4057
▁독특한	-10.4057
▁수준이	-10.4058
▁하더라도	-10.4058
6%)	-10.406
머니	-10.4061
▁아니냐	-10.4062
▁수급	-10.4062
▁취득	-10.4062
▁충	-10.4064
▁해당하는	-10.4068
▁파티	-10.407
▁자율	-10.4073
▁삼성은	-10.4074
▁참여할	-10.4074
54	-10.4074
▁지도부	-10.4075
▁동작	-10.4076
▁LA	-10.4077
▁나중에	-10.4082
▁맞춤형	-10.4083
치고	-10.4083
여서	-10.4084
▁랭킹	-10.4086
▁그것	-10.4092
▁KCC	-10.4095
▁메이	-10.4096
▁아무런	-10.4098
53	-10.41
파크	-10.4104
▁중국이	-10.4106
▁전시회	-10.4107
▁속도를	-10.4107
기지	-10.4109
▁여론조사	-10.411
첩	-10.411
▁갈수록	-10.411
해지고	-10.411
▁묻는	-10.4114
트를	-10.4114
▁영양	-10.4117
▁작용	-10.4117
▁경기장	-10.4118
▁마이	-10.4119
▁수주	-10.4123
▁자살	-10.4123
▁연합	-10.4124
▁방법으로	-10.4127
▁이름이	-10.4133
▁맨체스터	-10.4136
▁생각해	-10.4136
학회	-10.4139
물이	-10.414
▁거주	-10.4142
사항	-10.4142
▁끌	-10.4144
▁타이틀	-10.4144
▁준비를	-10.4147
▁제약	-10.4147
경기에	-10.4153
▁것이고	-10.4161
▁거론	-10.4162
▁수치	-10.4162
▁정규리그	-10.4162
▁진행할	-10.4163
▁완전	-10.4163
▁호날두	-10.4165
맛	-10.4169
▁넘	-10.4169
사랑	-10.417
시까지	-10.4172
▁액션	-10.4174
▁절차	-10.4175
▁소식을	-10.4177
▁대표하는	-10.4179
▁안된다	-10.418
▁시작한다	-10.4181
▁아니지만	-10.4181
▁아직도	-10.4181
▁지출	-10.4182
41	-10.4183
▁개성공단	-10.4184
▁포지션	-10.4187
▁귀국	-10.4188
▁요금제	-10.4191
해질	-10.4192
4000	-10.4193
업무	-10.4196
▁운전자	-10.4197
델	-10.4198
▁알려	-10.42
▁이웃	-10.4202
▁사무실	-10.4203
▁그럴	-10.4204
시청	-10.4209
▁항의	-10.421
▁이기	-10.4212
율을	-10.4212
몬	-10.4213
▁판정	-10.4214
▁뒤에	-10.4215
▁정체	-10.4215
받을	-10.4216
▁변신	-10.4216
▁적절한	-10.4216
▁세상	-10.4218
▁스위스	-10.4219
▁52	-10.4219
▁구조조정	-10.4221
▁전망된다	-10.4226
▁포스코	-10.4227
▁득점을	-10.4229
▁그것을	-10.4231
▁탄핵	-10.4231
▁어려워	-10.4232
77	-10.4234
▁응답	-10.4235
▁현황	-10.4235
▁뽑	-10.4236
95	-10.4236
▁정착	-10.4238
▁이밖에	-10.4238
▁복원	-10.4239
▁기업들이	-10.424
전이	-10.4241
▁수사를	-10.4243
벤	-10.4245
▁해제	-10.4246
▁기대한다	-10.4248
▁김경	-10.4248
▁편집	-10.4248
MA	-10.4249
단의	-10.4252
▁조금씩	-10.4256
됐다고	-10.426
▁들어간	-10.426
▁이유를	-10.426
▁전공	-10.426
띠	-10.4261
▁진료	-10.4262
▁몸에	-10.4266
▁발언을	-10.4272
▁한국에	-10.4275
▁입지	-10.4276
▁1%	-10.4277
▁유일하게	-10.4281
▁시사	-10.4281
▁선도	-10.4282
용으로	-10.429
▁가야	-10.429
▁다저스	-10.4291
▁분들	-10.4291
공단	-10.4294
▁애니메이션	-10.4296
▁a	-10.4301
7%)	-10.4304
▁영하	-10.4307
▁방해	-10.431
▁감안하면	-10.4313
▁백화점	-10.4314
▁예전	-10.4315
▁의문	-10.4318
▁매력	-10.4319
겠	-10.4321
▁셀	-10.4321
▁어려울	-10.4322
▁얻었다	-10.4324
9000	-10.4326
▁국방	-10.4331
06	-10.4331
IC	-10.4334
▁내는	-10.4338
▁시내	-10.4342
▁단속	-10.4344
▁배제	-10.4345
▁옆	-10.4346
▁즐기는	-10.435
▁64	-10.435
▁1990	-10.435
군이	-10.4353
하우스	-10.4355
▁된다는	-10.4356
▁담겨	-10.4359
고요	-10.436
▁능	-10.4361
▁후속	-10.4361
▁휴가	-10.4364
▁무대에	-10.4369
▁빗	-10.4369
둔	-10.4369
▁이어진	-10.4371
▁수익을	-10.4372
롤	-10.4372
▁건너	-10.4378
▁장식	-10.4379
▁담배	-10.4379
08	-10.438
6000	-10.4381
▁확실히	-10.4382
▁현상이	-10.4384
▁선수들을	-10.4384
▁콘	-10.4386
▁물리	-10.4389
개선	-10.4391
번호	-10.4391
▁영향력	-10.4391
▁대외	-10.4391
▁소감을	-10.4391
▁80%	-10.4393
텔레콤은	-10.4396
표를	-10.4402
▁계속해서	-10.4403
▁막을	-10.4406
▁제조업	-10.4408
▁전원	-10.4409
▁불가능	-10.441
▁선보인	-10.4414
▁연구개발	-10.4415
▁하락했다	-10.4416
▁비용을	-10.4417
▁아웃	-10.4418
▁정도다	-10.4418
▁리버풀	-10.4422
호는	-10.4423
▁이종	-10.4423
▁당부했다	-10.4427
▁요구했다	-10.4429
지게	-10.4431
졌습니다	-10.4433
▁엠	-10.4433
▁목소리가	-10.4434
▁코트	-10.444
▁대학생	-10.445
▁본격	-10.4451
▁이슬람	-10.4453
▁승리로	-10.4455
▁만들어진	-10.4457
▁국무총리	-10.4458
▁인재	-10.4458
▁그게	-10.4462
▁즉각	-10.4464
▁별도의	-10.4464
▁뼈	-10.4464
▁대통령을	-10.4468
▁대회를	-10.4469
▁맞지	-10.4472
▁매치	-10.4472
윈	-10.4473
▁트위터	-10.4475
▁경찰에	-10.4475
▁운동을	-10.4479
▁건조	-10.4482
▁이번에는	-10.4483
▁이사장	-10.4484
▁촉구했다	-10.4487
보면	-10.4488
▁대표이사	-10.449
▁위기에	-10.4491
▁수백	-10.4491
▁이뤄진	-10.4494
사업을	-10.4498
▁교육을	-10.4499
▁사유	-10.4505
▁종류	-10.451
리스트	-10.451
번홀	-10.4516
▁지적이	-10.4517
▁방향을	-10.4519
▁상당수	-10.4519
수준	-10.4521
▁벌이고	-10.4524
▁값	-10.4524
▁도약	-10.4526
▁풍경	-10.4527
▁News	-10.4529
▁실시한	-10.453
▁보조금	-10.4531
▁찾을	-10.4533
원에서	-10.4533
▁공중	-10.4533
의료	-10.4537
▁계기가	-10.4543
▁일주일	-10.4545
직을	-10.4546
▁원을	-10.4548
▁후보로	-10.4552
▁팀에	-10.4553
▁설득	-10.4553
▁식당	-10.4556
▁취급	-10.4557
정신	-10.4565
▁고향	-10.4566
▁저자	-10.4566
부가	-10.4567
에게도	-10.457
작업	-10.4572
(9	-10.4573
▁나란히	-10.4574
▁자신감을	-10.4576
▁정치인	-10.4577
영화	-10.4578
▁저항	-10.458
▁징계	-10.4582
▁SW	-10.4583
▁필리핀	-10.4586
▁손에	-10.4586
▁결과는	-10.4587
▁광역	-10.459
▁내수	-10.459
▁주지	-10.4591
▁떨	-10.4591
▁문자	-10.4592
▁진술	-10.4595
(18	-10.4599
61	-10.46
▁서브	-10.4607
▁태풍	-10.4608
▁딱	-10.4608
관을	-10.4613
스티	-10.4613
월드	-10.4614
▁협상을	-10.4618
85	-10.4618
▁백악관	-10.4619
▁만기	-10.4622
▁대체로	-10.4623
▁내지	-10.4624
▁중에서	-10.4629
▁그럼에도	-10.463
▁형태의	-10.4631
비율	-10.4634
스코	-10.4634
▁©	-10.4635
▁이재	-10.4635
▁라이	-10.4639
▁그것은	-10.4646
▁맡아	-10.4649
▁말했습니다	-10.4657
▁빙	-10.4659
▁초점을	-10.4659
▁노사	-10.4664
▁골프장	-10.4664
▁창작	-10.4665
▁살려	-10.4666
▁상태로	-10.4666
68	-10.4667
매치	-10.4667
▁면에서	-10.467
타로	-10.4672
▁비정규직	-10.4674
▁예상했다	-10.4676
▁벤	-10.4676
▁플레이를	-10.468
대비	-10.4681
▁가면	-10.4683
까요	-10.4685
ation	-10.4686
▁위축	-10.4692
▁리더십	-10.4692
위원회는	-10.4692
▁말로	-10.4693
▁서류	-10.4693
활동을	-10.4696
▁삭제	-10.4701
▁희	-10.4701
천만원	-10.4701
▁패널	-10.4705
▁대법원	-10.4707
▁누군가	-10.4707
▁장관이	-10.4708
▁가로	-10.4708
조건	-10.4709
▁목적으로	-10.471
▁개발에	-10.4713
▁골문	-10.4714
▁마법	-10.472
▁후보의	-10.4724
▁고발	-10.4725
▁알리	-10.4725
▁아직까지	-10.4727
Z	-10.4732
▁적자	-10.4738
▁회의를	-10.4747
▁당한	-10.4749
▁세워	-10.475
▁연금	-10.475
상으로	-10.475
▁미드필더	-10.4752
▁봐야	-10.4752
▁칸	-10.4753
받고	-10.4755
▁그려	-10.4757
▁움직임	-10.4757
▁대회에	-10.4758
▁라디오	-10.476
▁상무	-10.4762
올림픽	-10.4763
▁합동	-10.4763
▁내놓은	-10.4763
중이다	-10.4764
▁뒤로	-10.4768
화학	-10.4772
▁부상을	-10.4772
▁창원	-10.4774
자에게	-10.4774
북한	-10.4777
▁커지고	-10.478
▁정상화	-10.4783
▁지지율	-10.4785
x	-10.4789
하자는	-10.479
▁금메달	-10.479
▁확인됐다	-10.479
▁환경을	-10.4792
▁유지하고	-10.4793
박물관	-10.4794
종목	-10.4801
▁추적	-10.4802
짓	-10.4806
▁아이디어	-10.4807
트라	-10.4809
▁민생	-10.4809
야드	-10.4813
결과	-10.4816
▁회동	-10.4817
▁앨범	-10.4818
▁갔다	-10.4818
▁대상이	-10.482
라이	-10.4822
▁나오	-10.4823
▁영향으로	-10.4824
76	-10.4825
▁수업	-10.4826
▁사드	-10.4827
▁이용하는	-10.4836
부산	-10.4836
▁높이는	-10.4838
78	-10.484
▁60%	-10.484
▁보지	-10.4843
▁추락	-10.4847
행정	-10.4847
▁지지를	-10.4848
▁관측	-10.4851
년이	-10.4852
▁쏟아	-10.4858
▁당했다	-10.4859
체제	-10.4861
하이	-10.4862
▁상승한	-10.4863
▁단일	-10.4864
▁조각	-10.4865
▁영향	-10.4866
▁항공기	-10.4869
▁더블	-10.4871
32	-10.4876
했	-10.488
▁차지한	-10.4885
▁기도	-10.4886
▁동양	-10.4886
▁출전해	-10.4887
▁단어	-10.4888
▁공동으로	-10.4894
▁별도로	-10.4898
▁담고	-10.49
▁싸	-10.4901
98	-10.4901
칙	-10.4915
여성	-10.4917
▁톱	-10.4917
▁기술력	-10.4919
▁적용해	-10.4921
전자는	-10.4921
았던	-10.4922
▁출시된	-10.4922
컴	-10.4923
▁높았다	-10.4923
미디어	-10.4923
▁집계	-10.4924
▁탄력	-10.4924
핵	-10.4924
▁입찰	-10.4927
▁무실점	-10.4929
▁회계	-10.4931
▁징역	-10.4932
화된	-10.4933
▁마크	-10.494
▁부산시	-10.4941
였습니다	-10.4945
차로	-10.4945
▁분쟁	-10.4946
▁열린우리당	-10.4946
▁썼다	-10.4949
이었지만	-10.495
▁재생	-10.495
둘	-10.495
▁식사	-10.4957
j	-10.4959
ad	-10.4959
▁전설	-10.496
신청	-10.4963
▁유가	-10.4965
8%)	-10.4967
로서의	-10.4967
ur	-10.4969
▁인기가	-10.497
▁류현진	-10.4971
▁묘사	-10.4971
▁꺼	-10.4972
09	-10.4973
▁성분	-10.4976
바이	-10.4976
▁불편	-10.4977
▁치고	-10.4977
▁사용한	-10.4978
7000	-10.4981
▁늘려	-10.4982
▁조만간	-10.4985
▁장악	-10.4986
▁정지	-10.4987
▁코스닥	-10.4987
있	-10.4989
었는데	-10.4991
▁진실	-10.4993
기반	-10.4996
▁김상	-10.4998
▁p	-10.4998
62	-10.4999
▁민주	-10.5001
▁출간	-10.5003
▁탑승	-10.5005
▁오랫동안	-10.501
분을	-10.5015
▁보조	-10.5016
관은	-10.5017
▁700	-10.5018
랜	-10.5022
SA	-10.5026
▁단순한	-10.5027
포럼	-10.5029
52	-10.5031
▁노동자	-10.5032
▁댓글	-10.5033
▁않습니다	-10.5034
▁승리했다	-10.5036
▁직무	-10.5044
▁취재	-10.5044
부는	-10.5046
인당	-10.5046
▁일어나	-10.5047
▁비리	-10.5048
▁소녀	-10.505
▁유튜브	-10.5054
▁원유	-10.5054
▁방법이	-10.5058
▁동생	-10.5059
▁참석해	-10.5059
▁로마	-10.5061
▁다이	-10.5065
▁중순	-10.5066
▁급증	-10.5072
▁멀리	-10.5073
▁당국	-10.5074
개가	-10.5074
실적	-10.5078
▁불리	-10.5083
물질	-10.5086
용품	-10.5088
▁거친	-10.5089
▁조국	-10.509
승점	-10.509
w	-10.5093
▁이어지고	-10.5093
▁동일한	-10.5098
▁발전을	-10.5102
▁시리아	-10.5103
▁대책을	-10.5103
▁후에	-10.5103
▁유형	-10.5104
▁둘째	-10.5104
▁했으나	-10.5106
▁텍사스	-10.511
영상	-10.511
교통	-10.511
▁재무	-10.5111
▁발달	-10.5111
▁청주	-10.5114
1000	-10.5117
▁차관	-10.5117
▁전망이	-10.5118
▁권리	-10.5119
▁않아도	-10.512
▁끝내	-10.5124
▁않았던	-10.5128
▁밀리	-10.5129
트는	-10.5129
▁스웨덴	-10.5131
수술	-10.5132
문학	-10.5137
▁h	-10.5138
▁팬들의	-10.5139
▁사례가	-10.5144
▁흔히	-10.5148
▁각자	-10.5148
줬다	-10.5149
으로써	-10.5152
▁억제	-10.5152
▁꼽았다	-10.5156
▁늘어날	-10.5157
▁포함된	-10.516
▁총괄	-10.5161
▁넥센	-10.5161
▁46	-10.5164
별로는	-10.5168
후보	-10.5169
▁l	-10.517
▁훼손	-10.517
지면서	-10.5176
▁배려	-10.5181
▁동참	-10.5183
▁지금도	-10.5184
▁에이	-10.5185
▁에스	-10.5188
▁유나이티드	-10.5199
▁것이라	-10.5204
▁학생들이	-10.5204
극장	-10.5209
07	-10.5209
액은	-10.5211
▁매출은	-10.5214
연승	-10.5222
▁전기차	-10.5225
▁조사한	-10.5228
렛	-10.5231
경쟁	-10.5234
머리	-10.5234
▁옵션	-10.5236
▁참석했다	-10.5237
MS	-10.5238
▁혁명	-10.5239
▁자세	-10.524
되기도	-10.524
▁기소	-10.5241
▁가능성	-10.5245
▁사람들에게	-10.5247
▁모습이다	-10.5248
했는지	-10.5249
▁크리스	-10.525
서도	-10.5251
▁열정	-10.5252
▁입장에서	-10.5252
조치	-10.5257
▁시간에	-10.5259
딘	-10.5259
▁이야기가	-10.5261
as	-10.5261
▁콘서트	-10.5262
▁꼽힌다	-10.5268
▁철저히	-10.5268
▁드러내	-10.527
▁북한에	-10.5274
▁매주	-10.5274
금액	-10.5275
▁상대방	-10.5276
▁저렴한	-10.5277
회에	-10.5277
▁교육부	-10.528
▁하락한	-10.528
▁보여주고	-10.5282
▁촉진	-10.5284
▁여유	-10.5286
▁확충	-10.5287
램	-10.5287
▁변동	-10.5289
▁인사를	-10.5289
▁입법	-10.5291
▁분석한	-10.5296
▁탑	-10.5297
▁왔	-10.5297
▁주장을	-10.5298
71	-10.5302
이든	-10.5302
03	-10.5303
▁선정된	-10.5304
▁개발을	-10.5305
▁분석이다	-10.5311
▁익	-10.5311
▁물을	-10.5317
▁가고	-10.5321
▁체육	-10.5321
▁뭔가	-10.5323
▁의뢰	-10.5328
▁다르게	-10.533
▁몰려	-10.533
▁와서	-10.5332
▁높이고	-10.5333
▁있었는데	-10.5336
렸던	-10.5337
▁상승세	-10.534
위권	-10.5341
▁자사	-10.5347
▁75	-10.5348
▁쥐	-10.535
계의	-10.5351
▁완벽한	-10.5351
▁혼란	-10.5351
▁저지	-10.5353
IA	-10.5354
▁피해가	-10.5355
▁이뤄질	-10.5356
▁위원	-10.5356
▁세포	-10.5357
▁스피드	-10.5357
▁세계에서	-10.5358
▁분야에	-10.5359
▁것이었다	-10.5363
▁칠	-10.5377
▁바이러스	-10.5377
▁현역	-10.5378
▁컸다	-10.5379
▁가질	-10.538
▁곽	-10.5381
▁김재	-10.5382
▁1500	-10.5387
▁태블릿	-10.5388
만원의	-10.5391
▁둔화	-10.5391
▁가격을	-10.5392
▁느낌이	-10.5393
▁십	-10.5397
▁심한	-10.5399
놓	-10.5402
▁여권	-10.5402
▁반전	-10.5403
▁인텔	-10.5407
▁공연을	-10.5407
해지는	-10.5408
▁액	-10.5409
고객	-10.5411
롭	-10.5411
▁명품	-10.5415
▁IS	-10.5415
▁안타	-10.5415
▁차를	-10.5422
▁호소	-10.5423
▁MVP	-10.5423
▁전역	-10.5424
▁그들은	-10.5424
▁상용화	-10.5424
▁총재	-10.5426
(22	-10.5428
▁이탈	-10.543
씨를	-10.5431
▁많고	-10.5433
받았다	-10.5435
▁과학기술	-10.5437
▁메모리	-10.5437
▁사람들을	-10.5438
▁물량	-10.5438
▁만남	-10.5439
▁원인이	-10.5441
▁기세	-10.5441
▁아르헨티나	-10.5442
▁참여해	-10.5442
호가	-10.5442
▁유저들	-10.5443
▁홈런을	-10.5445
중심	-10.5446
▁결승전	-10.5447
▁일본에서	-10.5448
중앙	-10.5449
▁색상	-10.5452
▁최악의	-10.5454
▁존중	-10.5454
하더라도	-10.5456
&	-10.5457
▁내외	-10.5458
ro	-10.5461
트로	-10.5463
84	-10.5464
왔	-10.5464
▁이른다	-10.5465
▁격려	-10.5465
률을	-10.5466
률은	-10.5466
개월간	-10.5467
▁임직원	-10.5467
▁개정안	-10.5469
틱	-10.5475
▁돈이	-10.5477
▁받기	-10.5479
수도	-10.5481
▁견	-10.5483
▁주가가	-10.5486
89	-10.5487
▁실수	-10.5487
보니	-10.5488
▁전무	-10.5493
▁지내	-10.5493
▁47	-10.5497
삼성	-10.5498
▁일본은	-10.5499
▁재단	-10.5501
▁늘어나	-10.5501
치기	-10.5502
▁골드	-10.5503
▁f	-10.5507
▁다니	-10.5507
▁살해	-10.551
▁소식	-10.5511
▁발생했다	-10.5511
▁증권사	-10.5516
▁선생	-10.5519
▁사항	-10.552
▁않다는	-10.5522
▁스타트업	-10.5522
▁페이지	-10.5524
▁주목을	-10.5527
▁민원	-10.5528
▁폐쇄	-10.5529
법에	-10.5535
세포	-10.5537
▁믿음	-10.5542
▁고교	-10.5542
▁상향	-10.5543
▁베이	-10.5543
드라	-10.5544
심을	-10.5546
▁수술을	-10.5549
▁것이며	-10.5549
▁협력을	-10.5551
▁출산	-10.5554
멘	-10.5555
▁총리가	-10.5561
▁본인이	-10.5562
▁화성	-10.5566
▁만든다	-10.5573
▁종이	-10.5574
▁여성의	-10.5574
▁같습니다	-10.5575
▁동점	-10.5577
▁공원	-10.5578
74	-10.5579
▁사실은	-10.5579
▁위상	-10.558
답	-10.5581
▁잡지	-10.5583
▁영광	-10.5583
▁발효	-10.5584
▁블로그	-10.5585
버리	-10.5586
▁국민이	-10.5589
▁서부	-10.559
▁세운	-10.5591
▁보이며	-10.5593
▁막아	-10.5594
▁비행기	-10.5596
▁거대한	-10.5596
공학	-10.5597
▁열기	-10.5597
▁짐	-10.5599
렸	-10.5601
▁붕괴	-10.5602
▁몰리	-10.5607
장애	-10.5607
▁착	-10.5609
▁기온이	-10.5612
▁돌아온	-10.5613
엠	-10.5614
국장	-10.5615
▁1~2	-10.5615
호텔	-10.562
▁충족	-10.5621
규제	-10.5621
공항	-10.5622
몽	-10.5622
▁유전자	-10.5624
핀	-10.5626
▁것보다	-10.5627
▁무리	-10.5628
▁한글	-10.5635
▁회사의	-10.5635
▁명칭	-10.564
▁온도	-10.5641
방법	-10.5644
01	-10.5646
▁돌리	-10.5649
프리	-10.565
▁넓은	-10.565
▁콩	-10.5653
이스	-10.5657
▁이름으로	-10.5657
▁사업은	-10.5658
치가	-10.5658
▁화제	-10.5658
▁파업	-10.5659
부를	-10.566
▁이상으로	-10.566
▁노트북	-10.5661
▁않는다는	-10.5662
▁실적을	-10.5663
▁철회	-10.5664
▁특성	-10.5665
▁더해	-10.5665
율은	-10.5666
▁기독교	-10.5666
▁생성	-10.5667
팀이	-10.5668
▁본격화	-10.5669
▁아시안게임	-10.5672
▁250	-10.5681
건으로	-10.5681
▁대안	-10.5682
▁바꾸	-10.5683
▁집에	-10.5686
▁들어오	-10.5687
▁묵	-10.5688
▁정밀	-10.5689
▁시기에	-10.5691
▁주목된다	-10.5693
▁의존	-10.5694
시아	-10.5695
▁일종의	-10.57
▁균형	-10.5703
▁부채	-10.5707
▁얘기다	-10.5707
▁곳으로	-10.5708
NA	-10.5709
쳤	-10.571
봤다	-10.5711
▁주체	-10.5715
▁목사	-10.5716
▁보여준	-10.5717
▁방문한	-10.5722
▁부서	-10.5723
▁신장	-10.5725
▁대량	-10.5725
▁담아	-10.5729
▁소모	-10.5732
▁한국이	-10.5732
▁면적	-10.5732
▁진행됐다	-10.5734
가족	-10.5736
▁말할	-10.5738
▁회의에서	-10.5739
더라	-10.5743
▁페이	-10.5743
▁관계가	-10.5744
▁Y	-10.5744
▁이외에도	-10.5746
▁49	-10.5746
▁국민의당	-10.5747
▁심화	-10.575
실장	-10.5751
▁롤	-10.5752
▁차이	-10.5753
놓은	-10.5756
ra	-10.5763
대전	-10.5765
▁포털	-10.577
87	-10.5772
▁무시	-10.5774
▁유행	-10.5774
쾌	-10.5775
▁선보일	-10.578
▁정도가	-10.5782
▁딜	-10.5782
▁지나치게	-10.5783
▁이어갔다	-10.5789
▁LED	-10.579
▁않았고	-10.5794
▁리스크	-10.5794
▁상주	-10.5795
아파트	-10.5795
▁다운로드	-10.5796
노조	-10.5797
▁b	-10.5797
▁앤	-10.5797
▁보강	-10.5799
▁흥행	-10.58
▁펴	-10.5801
▁예산을	-10.5805
▁추진할	-10.5808
▁1998	-10.5809
▁뜨	-10.5809
▁맺	-10.5811
▁예정인	-10.5815
▁연방	-10.5816
렁	-10.5816
시킨다	-10.5818
▁고객에게	-10.5819
▁중국에서	-10.5819
▁부위	-10.5819
▁때문입니다	-10.582
▁장치	-10.5823
▁역량을	-10.5825
▁지역을	-10.5826
▁들어가는	-10.583
▁소폭	-10.5833
놀이	-10.5834
▁맞대결	-10.5834
▁연동	-10.5834
▁일찍	-10.5837
럴	-10.5838
이지	-10.5839
제한	-10.5839
▁창조	-10.5842
▁터치	-10.5843
▁굳이	-10.5843
▁세종시	-10.5843
▁마음에	-10.5849
▁51	-10.585
▁잠실	-10.5851
▁Δ	-10.5852
현장	-10.5855
▁선생님	-10.5855
억원이	-10.5856
스크	-10.5857
▁별다른	-10.5858
79	-10.5858
▁행사는	-10.5861
▁교과서	-10.5865
▁해안	-10.5867
제는	-10.5868
▁59	-10.5871
▁자유롭게	-10.5873
▁진행했다	-10.5873
▁개헌	-10.5876
강에	-10.5877
▁유력	-10.5878
▁감성	-10.5882
▁선사	-10.5882
지수는	-10.5883
▁혜택	-10.5883
▁단축	-10.5883
▁전송	-10.5884
▁몇몇	-10.5886
사태	-10.5887
▁그러니까	-10.5887
잉	-10.5889
▁드래곤	-10.5891
▁벨	-10.5892
▁가려	-10.5894
센터에서	-10.5894
▁경쟁이	-10.5895
▁추모	-10.5897
▁해상	-10.5897
▁대표와	-10.5898
▁주인	-10.5899
▁연설	-10.5901
▁계열	-10.5904
사장	-10.5908
시스	-10.5909
▁순으로	-10.5912
▁협업	-10.5914
리지	-10.5915
▁없게	-10.5916
위의	-10.5919
▁고문	-10.5925
▁집안	-10.5925
▁투쟁	-10.5928
▁사실이다	-10.5928
▁먼	-10.5928
▁고객이	-10.5929
▁새해	-10.5929
협상	-10.5931
▁우려를	-10.5932
인데요	-10.5932
▁권고	-10.5933
노동	-10.5933
▁급락	-10.5935
▁필요하다는	-10.594
▁따뜻한	-10.594
피안타	-10.5943
방향	-10.5943
차량	-10.5944
▁SBS	-10.5944
(21	-10.5945
▁그렇다고	-10.5947
학생	-10.5948
▁진행하는	-10.595
▁많지	-10.5951
▁차로	-10.5951
▁이번이	-10.5954
▁추구	-10.5955
▁이들을	-10.5956
▁동해	-10.5957
▁형사	-10.5957
96	-10.5959
았	-10.5959
▁생태계	-10.596
예산	-10.596
OS	-10.5961
▁쾌	-10.5961
진흥	-10.5969
▁고속도로	-10.5971
▁공백	-10.5972
느	-10.5975
▁방통위	-10.5977
어시스트	-10.5978
▁강행	-10.598
▁하나님	-10.5981
▁증상이	-10.5983
식이	-10.5983
▁있었	-10.5984
▁병행	-10.5985
공격	-10.5986
▁한국시간	-10.5986
년째	-10.5987
▁전담	-10.5989
▁꺼내	-10.599
버린	-10.5991
▁체계	-10.5991
▁뛰	-10.5993
▁델	-10.5996
▁조별리그	-10.5997
▁음식을	-10.5998
▁1999	-10.6002
▁주위	-10.6006
▁강세	-10.6007
▁남겼다	-10.601
선이	-10.6012
▁임신	-10.6014
▁기본적으로	-10.6014
함과	-10.6014
▁비타민	-10.6015
4)	-10.6016
▁인공	-10.6017
▁되는데	-10.6019
▁병력	-10.602
▁가게	-10.6021
▁말에	-10.6023
▁물류	-10.6023
▁소수	-10.6024
▁준비하고	-10.6024
내고	-10.6029
▁간다	-10.6033
▁컨설팅	-10.6034
추진	-10.6036
▁대답	-10.6037
▁국민연금	-10.6037
▁열차	-10.6042
am	-10.6043
▁안전성	-10.6047
▁집회	-10.6047
▁해킹	-10.6048
▁약물	-10.6051
▁비율이	-10.6052
이었고	-10.6052
▁국채	-10.6054
▁되면서	-10.6055
진이	-10.6056
▁점프	-10.606
▁춘천	-10.6063
원장	-10.6063
▁마주	-10.6066
z	-10.6071
▁대다수	-10.6071
▁줄어든	-10.6071
▁앉	-10.6075
컨	-10.6077
▁검찰이	-10.6082
▁북부	-10.6082
▁문의	-10.6085
▁고속	-10.6085
▁동시	-10.6086
▁진정	-10.6088
▁결합	-10.6089
킨	-10.6092
▁갑	-10.6095
잖아요	-10.6097
▁이것은	-10.6097
▁소니	-10.61
▁아이템을	-10.6101
▁세종	-10.6101
▁넘치는	-10.6102
▁대립	-10.6104
▁추신수는	-10.6105
▁가시	-10.6107
▁관세	-10.611
▁비디오	-10.611
▁바람이	-10.6111
▁재미를	-10.6111
▁성장세	-10.6111
▁된다고	-10.6112
▁주주	-10.6114
▁손해	-10.6114
▁뒷받침	-10.6117
▁맵	-10.612
▁있다며	-10.612
지며	-10.6121
보고서	-10.6121
▁그러면	-10.6122
전화	-10.6123
▁케	-10.6131
▁김용	-10.6133
▁쟁점	-10.6134
잠	-10.6135
▁조율	-10.6135
▁VR	-10.6136
▁나의	-10.6139
교육청	-10.6141
▁있어요	-10.6142
▁카드를	-10.6142
▁곳이다	-10.6146
▁조항	-10.6147
▁제시한	-10.6151
▁한일	-10.6153
▁접전	-10.6154
▁시대를	-10.6154
▁서명	-10.6156
타자	-10.6158
▁싱글	-10.6159
투표	-10.6159
레벨	-10.616
비아	-10.6161
해준다	-10.6162
97	-10.6163
삭	-10.6167
미터	-10.6168
커스	-10.6169
▁결의	-10.6172
▁전후	-10.6173
▁봐	-10.6175
▁땀	-10.6175
▁갖는	-10.6175
▁제고	-10.6176
재정	-10.6177
했었다	-10.618
▁부문에서	-10.6186
철도	-10.6188
▁코너	-10.6188
▁제어	-10.6189
▁노후	-10.619
▁강의	-10.6191
▁이성	-10.6196
▁본회의	-10.6196
빠	-10.6198
결제	-10.6199
▁드리	-10.6201
▁트리	-10.6203
▁촉구	-10.6204
▁또다시	-10.6204
▁올리는	-10.6205
▁사람에게	-10.6206
▁반등	-10.6207
▁집중력	-10.6207
▁그야말로	-10.621
▁로드	-10.6213
렸고	-10.6214
▁통일부	-10.6215
▁아르	-10.6215
▁아스널	-10.6217
▁복수	-10.6221
스카	-10.6221
▁최강	-10.6222
주간	-10.6223
▁기원	-10.6226
▁던전	-10.6228
▁진행될	-10.623
▁살인	-10.623
▁부정적인	-10.6231
▁전해	-10.6232
▁역사적	-10.6233
▁하이브리드	-10.6233
▁치른	-10.6235
안정	-10.6238
▁대장	-10.6242
(25	-10.6244
▁주간	-10.6244
▁공군	-10.6246
▁상업	-10.6246
랐	-10.6248
▁개인정보	-10.6248
ent	-10.6249
▁거래를	-10.6249
▁희망을	-10.6251
즐	-10.6253
ha	-10.6258
분께	-10.6259
▁기간에	-10.626
줘야	-10.6261
권이	-10.6264
환자	-10.6265
▁모았다	-10.6268
세요	-10.6269
▁확	-10.6278
▁출신의	-10.6279
▁그녀는	-10.628
▁종전	-10.6283
▁비롯	-10.6285
건의	-10.6287
▁이주	-10.6288
에서부터	-10.6289
▁and	-10.629
▁이뤄졌다	-10.6295
▁선수의	-10.6296
▁수수료	-10.6297
▁국세청	-10.6298
▁거기에	-10.6298
짜	-10.6299
▁적어	-10.63
▁표명	-10.6303
▁언	-10.6304
리에	-10.6305
폴	-10.6306
▁사무	-10.6306
▁지원할	-10.6307
▁그렇다	-10.6309
▁건강한	-10.6309
▁행보	-10.6313
로서는	-10.6317
▁주변에	-10.6319
▁조화	-10.6319
▁같아요	-10.6319
▁실망	-10.6322
▁한강	-10.6323
▁우리에게	-10.6325
▁연구소	-10.6328
▁지목	-10.6331
▁북핵	-10.6332
▁점포	-10.6333
▁오해	-10.6335
▁그저	-10.6335
▁훌륭한	-10.6337
▁수학	-10.6338
▁지켜보	-10.6338
▁비율	-10.634
▁공개한	-10.6341
괴	-10.6342
▁HD	-10.6343
리어	-10.6343
▁게재	-10.6347
채널	-10.6348
▁말레이시아	-10.6351
▁당선인	-10.6354
▁갖게	-10.6356
샷	-10.6358
▁척	-10.6359
▁진전	-10.636
부대	-10.6365
▁강력	-10.6366
사인	-10.6369
“	-10.6371
▁일반적으로	-10.6372
▁대부분이	-10.6372
▁고수	-10.6374
광고	-10.6374
▁가치가	-10.6375
탐	-10.6375
▁바르	-10.6375
인들이	-10.6376
▁챙기	-10.6376
▁죽음	-10.6378
73	-10.6382
▁교수가	-10.6383
났다	-10.6383
▁63	-10.6386
▁모비스	-10.6386
▁임상	-10.6389
▁유효	-10.6392
현재	-10.6395
▁지역구	-10.6397
▁상황은	-10.6397
낸다	-10.6398
▁도달	-10.64
▁크고	-10.6402
됨에	-10.6402
▁소년	-10.6403
▁감소한	-10.6405
▁얼굴을	-10.6408
▁54	-10.6408
▁하나가	-10.6409
▁한국을	-10.6413
▁바깥	-10.6416
▁마르	-10.6418
▁준우승	-10.6419
▁받아야	-10.6423
▁오염	-10.6425
▁레이스	-10.6428
▁집을	-10.6429
▁부사장	-10.643
페이	-10.644
▁측이	-10.6441
았습니다	-10.6443
론을	-10.6444
▁입단	-10.6445
▁가리	-10.6445
▁마찬가지	-10.6445
▁넥슨	-10.6447
▁물건	-10.6449
▁상태를	-10.6451
▁전파	-10.6456
▁보여줬다	-10.6457
▁제도를	-10.6458
▁흐름	-10.646
렸습니다	-10.6461
▁감독과	-10.6462
▁제품의	-10.6465
판을	-10.6466
▁적발	-10.6471
▁증가율	-10.6471
하니	-10.6472
▁대우	-10.6474
▁게임의	-10.6477
▁예상되는	-10.6479
사에	-10.6482
▁고등학교	-10.6484
롬	-10.6485
▁정원	-10.6491
무역	-10.6492
ir	-10.6493
▁기준을	-10.6495
▁용인	-10.6506
▁계좌	-10.6509
▁올시즌	-10.6509
에겐	-10.6513
▁도와	-10.6516
▁불펜	-10.6517
▁러	-10.652
▁참고로	-10.6521
▁무사	-10.6524
▁시나리오	-10.6526
▁검토하고	-10.6527
▁돌입	-10.6528
▁윤리	-10.653
▁중구	-10.6535
스케	-10.6536
▁삶	-10.654
▁운명	-10.6541
▁고유	-10.6542
IS	-10.6543
▁90%	-10.6544
▁베스트	-10.6545
▁사냥	-10.6546
▁주재	-10.6546
▁완공	-10.6549
▁필요하다고	-10.6549
▁분당	-10.655
▁역량	-10.6551
▁머리를	-10.6552
▁이것	-10.6554
전기	-10.6554
겼다	-10.6555
▁수면	-10.6555
▁점유율	-10.6555
▁기록해	-10.6557
저축은행	-10.6558
▁부당	-10.6559
▁증상	-10.656
▁상처	-10.6561
▁스카이	-10.6561
TO	-10.6562
▁선호	-10.6562
▁자칫	-10.6564
▁묶	-10.6565
▁농협	-10.6566
▁성사	-10.6567
▁현재의	-10.6569
▁못했던	-10.6569
▁이메일	-10.657
▁같	-10.6574
▁지적이다	-10.6575
▁끊임없이	-10.6576
▁기업들의	-10.6577
▁미션	-10.6578
▁합쳐	-10.6579
▁학원	-10.658
▁보존	-10.6582
▁봐도	-10.6583
▁한해	-10.6584
▁유리한	-10.6585
▁강점	-10.6585
시리즈	-10.6586
▁걸려	-10.6588
▁지상파	-10.659
▁트레이드	-10.6591
▁태양	-10.6591
▁전화를	-10.6591
씨와	-10.6593
▁널리	-10.6594
▁문제점	-10.6594
▁모델을	-10.6595
▁아이들이	-10.6596
▁소리를	-10.6596
▁시대에	-10.6596
요금	-10.6598
▁없애	-10.6599
법이	-10.6599
▁식물	-10.66
▁중에는	-10.6602
▁자문	-10.6603
▁1.5	-10.6607
해진다	-10.6607
부터는	-10.6608
월말	-10.6608
푼	-10.6609
▁이익을	-10.661
▁확실한	-10.6612
▁녹색	-10.6617
▁사전에	-10.6617
▁비중을	-10.6617
▁가족들	-10.6619
▁곳곳에	-10.662
▁그걸	-10.662
이니	-10.662
▁관중	-10.6621
▁황금	-10.6622
▁하던	-10.6624
▁자격	-10.6625
▁화물	-10.6625
ol	-10.663
▁성장률	-10.6637
쇄	-10.6641
▁개장	-10.6644
▁진행되고	-10.6644
....	-10.6644
▁벌금	-10.6645
▁나쁜	-10.6646
▁일반적인	-10.6648
뇌	-10.6649
비치	-10.6652
▁세웠다	-10.6656
방안	-10.6658
▁출전한	-10.6659
▁변수	-10.6659
소재	-10.666
겁	-10.666
▁제품이	-10.666
▁크지	-10.6664
▁있는데요	-10.6664
구나	-10.6667
▁한다면	-10.6672
▁착수	-10.6672
하라는	-10.6673
▁위주로	-10.6676
됐다는	-10.6677
▁디자이너	-10.6679
▁해명	-10.6682
▁NC	-10.6685
▁키워	-10.6687
▁무상	-10.6688
ow	-10.6691
▁사무총장	-10.6691
st	-10.6692
▁고려대	-10.6693
▁BMW	-10.6694
렸지만	-10.6699
피아	-10.67
▁제치고	-10.6702
▁정규	-10.6705
▁긍정적	-10.6706
릉	-10.6708
3)	-10.6708
~2	-10.6708
부분	-10.6711
▁조달	-10.6712
▁열릴	-10.6712
▁실질적인	-10.6713
스럽게	-10.6718
▁믿고	-10.672
▁되찾	-10.672
체육관에서	-10.672
업종	-10.6721
▁자금을	-10.6724
▁확률	-10.6724
▁경찰이	-10.6725
▁라이브	-10.6727
▁동일	-10.673
▁84	-10.6731
▁줬다	-10.6733
당국	-10.6737
▁자제	-10.6738
▁아니라고	-10.6742
▁공화당	-10.6742
▁속도가	-10.6745
웨어	-10.6746
▁뻔	-10.6747
▁달했다	-10.6747
▁모자	-10.6748
캡	-10.6752
사이트	-10.6754
▁업계에	-10.6756
▁끌었다	-10.6758
▁전체적으로	-10.6759
이익	-10.6759
▁늘어났다	-10.6762
▁느끼는	-10.6765
▁집에서	-10.6768
▁연세대	-10.677
인사	-10.6773
▁선발로	-10.6782
▁생각했다	-10.6784
마켓	-10.6784
▁신세계	-10.6786
▁제압	-10.6788
▁오늘날	-10.679
▁웨	-10.6793
▁성능을	-10.6793
▁정부에	-10.6795
하듯	-10.6801
▁전반에	-10.6802
(12	-10.6803
▁실시한다	-10.6805
▁《	-10.6805
▁자회사	-10.6806
▁몸이	-10.6806
▁경비	-10.6808
▁사고가	-10.681
듯이	-10.6813
▁재활	-10.6814
▁김현	-10.6814
▁대비해	-10.6815
▁선정됐다	-10.6815
▁닫	-10.6816
▁신호	-10.6823
분기에	-10.6824
▁전체의	-10.6827
▁85	-10.683
▁상태가	-10.683
▁군대	-10.6832
▁오르는	-10.6832
▁다이어트	-10.6832
▁확인했다	-10.6834
▁출시한	-10.6836
▁현재는	-10.6837
▁여사	-10.6837
▁발표된	-10.6838
▁여수	-10.6838
▁개척	-10.6838
▁육군	-10.6841
▁가능할	-10.6843
▁방법은	-10.6844
▁입장에서는	-10.6844
▁관찰	-10.6845
op	-10.6845
▁한국어	-10.6847
▁이후에도	-10.6847
▁감사원	-10.685
▁쇼핑몰	-10.6853
▁생각합니다	-10.6855
▁모습으로	-10.6856
▁면담	-10.6856
차가	-10.6857
닐	-10.6859
▁소식이	-10.686
▁신형	-10.6861
▁매출을	-10.6863
▁자동으로	-10.6864
▁든다	-10.6864
인력	-10.6865
▁컨	-10.6866
▁www	-10.6867
▁0.2	-10.6868
▁스크린	-10.6873
협정	-10.6873
▁높이기	-10.6875
▁안양	-10.6875
▁들어갈	-10.6877
▁강화하고	-10.6877
끝	-10.6877
▁말라	-10.6878
서비스를	-10.6879
▁세계적으로	-10.688
▁부작용	-10.688
▁부정적	-10.688
▁53	-10.6881
▁요청했다	-10.6887
▁인지	-10.6887
▁GM	-10.6889
▁차원의	-10.689
학원	-10.6899
코드	-10.69
▁생길	-10.6908
▁이유다	-10.6908
▁ICT	-10.6908
▁비중은	-10.6908
▁지역은	-10.6913
▁개인의	-10.6914
망을	-10.6916
▁높아지고	-10.6916
▁아빠	-10.6919
▁갖추	-10.692
▁형제	-10.692
▁참가자	-10.692
▁김승	-10.692
PA	-10.6922
량은	-10.6922
▁이자	-10.6924
▁넘겨	-10.6925
▁연락	-10.6929
▁파울	-10.693
▁기아차	-10.6932
이므로	-10.6933
▁벤처	-10.6933
르는	-10.6936
▁결심	-10.6936
▁일원	-10.6942
공급	-10.6944
▁지방선거	-10.6944
▁기자회견에서	-10.6945
▁때보다	-10.6946
시가	-10.6949
▁상가	-10.695
▁살아남	-10.6952
▁살펴보면	-10.6953
▁차별화	-10.6957
▁배정	-10.6959
▁그러다	-10.696
▁서구	-10.6962
▁밖으로	-10.6963
▁순매도	-10.6963
▁나가는	-10.6965
하겠습니다	-10.6965
▁천안	-10.6967
▁안심	-10.6968
▁접목	-10.697
▁환자들	-10.6971
▁금융위기	-10.6972
뱅크	-10.6972
▁단행	-10.6973
신고	-10.6974
▁면접	-10.6975
▁타임	-10.6976
▁좋을	-10.6977
▁목소리	-10.6978
럭	-10.6978
▁소방	-10.698
▁첫날	-10.6981
▁구도	-10.6982
▁공시	-10.6983
수요	-10.6986
▁투구	-10.6989
▁추석	-10.6994
등록	-10.6994
▁앉아	-10.6995
▁머물	-10.6998
▁라이트	-10.6999
▁신화	-10.7002
천억원	-10.7002
▁범행	-10.7003
▁눈물	-10.701
▁생기는	-10.7011
▁왜곡	-10.7012
▁기상	-10.7014
▁덮	-10.7016
▁우리은행	-10.7017
니스	-10.7023
역사	-10.7025
▁합격	-10.7025
▁겪	-10.7025
▁아기	-10.7028
▁의장은	-10.7029
▁의혹이	-10.703
가능	-10.7031
▁갖췄다	-10.7034
▁기획재정부	-10.7035
안에	-10.7036
▁전직	-10.7038
▁나서는	-10.7038
▁합작	-10.7039
▁선택할	-10.7039
재산	-10.7042
▁면제	-10.7044
경기를	-10.7045
아시아	-10.7046
▁1980	-10.7049
이라면서	-10.705
▁갤러리	-10.705
▁싸움	-10.705
▁사업이	-10.7057
▁포함돼	-10.7058
▁친구들	-10.7058
▁행동을	-10.7059
▁움직임을	-10.7059
▁종종	-10.7061
▁늦	-10.7063
▁단위	-10.707
▁실패했다	-10.7072
▁독점	-10.7073
▁인상을	-10.7073
대통령	-10.7074
▁수준에	-10.7074
▁감독을	-10.7075
▁증언	-10.7076
▁남긴	-10.7076
▁해체	-10.7084
▁레이저	-10.7084
▁라이벌	-10.7091
▁깜짝	-10.7092
정은	-10.7093
▁차원	-10.7096
▁배당	-10.7097
▁어떠한	-10.7101
▁발급	-10.7103
▁크레	-10.7104
▁협회	-10.7106
버렸다	-10.7106
▁마련해	-10.7107
답게	-10.7108
▁번째로	-10.7109
▁장점	-10.711
(11	-10.711
▁그라운드	-10.711
▁2%	-10.711
▁솔로	-10.7113
▁오리	-10.7114
un	-10.7115
▁난이도	-10.7116
▁내장	-10.7116
박스	-10.7117
킬	-10.7118
대교	-10.712
▁안타를	-10.7122
▁이끌고	-10.7125
효과	-10.7126
밭	-10.7128
▁졸	-10.7128
▁만만치	-10.713
▁기름	-10.713
▁맥주	-10.7131
▁생겼다	-10.7131
94	-10.7131
▁고소	-10.7131
▁씨의	-10.7132
▁외모	-10.714
▁차지하고	-10.7141
▁창단	-10.7142
▁설비	-10.7143
▁때가	-10.7145
▁한계	-10.7149
▁확신	-10.715
같이	-10.715
▁폐기	-10.715
팀은	-10.7151
채권	-10.7152
▁맨시티	-10.7152
학자	-10.7157
▁앙	-10.7157
▁66	-10.7159
▁찾았다	-10.716
▁실력을	-10.716
▁예외	-10.7161
▁지낸	-10.7161
▁이라면서	-10.7162
▁별도	-10.7169
▁분기	-10.7172
륜	-10.7173
▁나서고	-10.7174
▁부스	-10.7175
▁가볍게	-10.7175
수로	-10.7176
▁라운드	-10.7176
▁습관	-10.7177
▁거죠	-10.718
내기	-10.7182
▁그래	-10.7182
▁수록	-10.7183
▁인용	-10.7184
▁성공적으로	-10.7187
년만에	-10.7187
▁살짝	-10.7188
DA	-10.7193
▁빅데이터	-10.7194
▁전작	-10.7195
▁관여	-10.7196
▁벤치	-10.7201
큰	-10.7203
▁용량	-10.7204
타임	-10.7204
▁헤어	-10.7206
회담	-10.7207
▁적어도	-10.721
▁유동성	-10.721
▁25%	-10.7211
▁보여주	-10.7211
셨	-10.7214
진은	-10.7215
▁결론	-10.7217
담당	-10.7217
▁보도합니다	-10.7218
▁마약	-10.722
▁4000	-10.7223
▁가져	-10.7224
▁근접	-10.7224
▁적정	-10.7226
▁소집	-10.7227
▁존재한다	-10.7227
▁바닥	-10.7229
끼리	-10.7229
▁치아	-10.723
▁본인의	-10.723
▁아쉬움을	-10.7231
▁논쟁	-10.7233
▁하나인	-10.7236
▁위에서	-10.7237
▁투기	-10.7238
▁골밑	-10.724
찌	-10.7246
▁유닛	-10.7247
과정에서	-10.7249
위원회를	-10.7249
▁놀이	-10.725
▁불만을	-10.7252
텐	-10.7257
진영	-10.7257
▁1997	-10.726
▁돌아	-10.7261
▁보면서	-10.7261
다니	-10.7266
석이	-10.7269
상담	-10.7273
▁번호	-10.7273
▁배포	-10.7274
▁차이를	-10.7276
사에서	-10.7278
▁이집트	-10.7278
금지	-10.728
▁72	-10.7281
▁법원	-10.7284
83	-10.7288
▁수리	-10.7288
▁원주	-10.7291
▁넘어서	-10.7291
▁재건축	-10.7295
▁납부	-10.7297
▁감지	-10.7298
▁지금의	-10.7302
인증	-10.7304
였	-10.7306
▁언급했다	-10.7309
▁출판	-10.7309
들이다	-10.731
▁국경	-10.7312
▁시작됐다	-10.7314
▁반격	-10.7314
▁마감했다	-10.7316
▁두번째	-10.7319
▁닿	-10.7321
▁가능해	-10.7324
▁지불	-10.7329
▁당신	-10.7329
▁삼아	-10.7331
▁무게	-10.7333
▁청소	-10.7334
▁터지	-10.7336
▁쓰지	-10.7337
▁동력	-10.7337
▁이른	-10.7338
▁국산	-10.734
임에도	-10.734
수익	-10.7342
▁넓	-10.7342
성의	-10.7343
인들의	-10.7345
▁높일	-10.7346
▁다행히	-10.7348
베르	-10.7349
지금	-10.7349
▁보도에	-10.7349
(15	-10.735
▁사이의	-10.7352
▁56	-10.7353
타운	-10.7355
▁그녀의	-10.7356
▁띠	-10.7357
▁마시	-10.7357
us	-10.7357
▁보고서	-10.7358
▁가능하며	-10.7358
▁박물관	-10.7359
▁연관	-10.7365
▁물론이고	-10.7366
만여	-10.7368
교수	-10.7368
▁사례를	-10.737
▁재난	-10.7372
정을	-10.7372
▁컨디션	-10.7376
테크	-10.7379
▁표정	-10.7382
▁거절	-10.7382
▁맞았다	-10.7386
▁대륙	-10.7386
대와	-10.7388
▁사람도	-10.739
건강	-10.7393
▁통신사	-10.7393
▁동료들	-10.7393
▁부모님	-10.7394
▁지키	-10.7397
DI	-10.7401
▁하향	-10.7402
▁해설	-10.7405
▁국내에	-10.7406
▁수단	-10.7408
~1	-10.7408
▁넘기	-10.7412
▁나도	-10.7413
▁판사	-10.7417
▁핵실험	-10.7417
닌	-10.7417
주식	-10.742
생활을	-10.7421
만원대	-10.7422
▁킹	-10.7422
▁흑자	-10.7424
▁천연	-10.7426
▁시민단체	-10.7427
▁프레	-10.743
아야	-10.7436
일보	-10.744
▁주류	-10.7445
▁철강	-10.7447
▁선배	-10.7449
평화	-10.7449
▁예정된	-10.745
▁올해부터	-10.7454
▁헬	-10.746
▁신용카드	-10.7462
자유	-10.7464
효율	-10.7464
▁입구	-10.7466
▁직장인	-10.7471
▁논의를	-10.7474
만원에	-10.7475
▁이승	-10.7475
▁폭행	-10.7481
앱	-10.7481
부품	-10.7481
트가	-10.7483
지난	-10.7488
▁결정적인	-10.7488
▁제출한	-10.7491
▁확대해	-10.7491
▁체중	-10.7494
▁연구를	-10.7498
체를	-10.7499
실을	-10.75
라이트	-10.75
인터넷	-10.7505
▁문화를	-10.7505
LG	-10.7505
▁펼치고	-10.7506
▁신뢰를	-10.7506
▁서울의	-10.7508
▁너무나	-10.7509
▁재능	-10.751
▁등장한	-10.7511
▁협	-10.7512
았고	-10.7514
▁철저한	-10.7516
▁가격에	-10.7518
대표팀	-10.752
▁다수의	-10.752
▁포럼	-10.7522
루에서	-10.7523
책을	-10.7524
에게서	-10.7524
▁포착	-10.7526
▁분산	-10.7527
▁현장에	-10.7527
▁과도한	-10.7529
▁우위를	-10.7529
▁나타나는	-10.7529
럽	-10.7529
영은	-10.7531
▁되며	-10.7531
▁자신에게	-10.7532
▁용산	-10.7535
▁운항	-10.7539
▁유사	-10.7542
▁증가하고	-10.7542
▁올리고	-10.7543
▁충청	-10.7545
▁쓰레기	-10.7545
이었습니다	-10.7547
▁재현	-10.7553
▁적립	-10.7555
프레	-10.7556
사실	-10.7556
▁말은	-10.7558
▁기업은	-10.7558
민주	-10.7558
증을	-10.7558
줬	-10.756
▁마찬가지다	-10.7562
▁타입	-10.7564
안보	-10.7565
▁그에게	-10.7567
▁배달	-10.7568
▁국토부	-10.7569
▁자신들의	-10.757
▁15%	-10.7572
▁학부모	-10.7576
▁복잡	-10.7576
▁t	-10.7578
▁기존에	-10.7578
▁연료	-10.7579
께서	-10.758
▁다음날	-10.7587
▁하나는	-10.7588
▁손쉽게	-10.7589
▁있느냐	-10.759
▁빠지	-10.7592
▁걸린	-10.7593
▁옆에	-10.7595
▁센서	-10.7598
▁가공	-10.7599
법은	-10.7599
▁중부	-10.7601
▁명령	-10.7604
▁설치된	-10.7607
▁실용	-10.7607
▁승용차	-10.7608
▁체결했다	-10.7611
▁부자	-10.7616
▁쏘	-10.7617
신도시	-10.7617
▁동네	-10.7621
▁협의를	-10.7622
▁상생	-10.7623
▁했	-10.7627
▁불어	-10.7627
정도	-10.7628
▁행사에	-10.7628
▁유발	-10.7629
▁치르	-10.7633
▁선수들에게	-10.7633
▁김기	-10.7634
▁고대	-10.7636
▁저희	-10.764
▁쌍	-10.7644
▁김정일	-10.7648
▁57	-10.7648
안이	-10.7651
▁주파수	-10.7651
▁실적이	-10.7657
▁표기	-10.766
위안	-10.7661
▁벌였다	-10.7661
▁재벌	-10.7663
이드	-10.7663
액이	-10.7664
▁회수	-10.7664
▁든	-10.7668
▁거두	-10.7672
▁간판	-10.7672
▁인터뷰를	-10.7673
▁표면	-10.7673
테이	-10.7675
회의를	-10.7675
▁주축	-10.7677
▁비싼	-10.768
▁색깔	-10.7683
외교	-10.7684
들로부터	-10.7685
▁검찰에	-10.7686
▁아우	-10.7687
▁비용이	-10.7688
스턴	-10.7691
▁살펴	-10.7691
▁김씨는	-10.7691
▁상당의	-10.7692
82	-10.7693
▁분양가	-10.7693
▁찾고	-10.7694
대강	-10.7694
▁그에	-10.7695
▁출국	-10.7696
▁기업에	-10.7697
▁한달	-10.7697
▁반응이	-10.77
▁드는	-10.7702
▁그들이	-10.7702
▁진행한	-10.7702
▁열렸다	-10.7704
▁강화를	-10.7704
▁야외	-10.7705
▁이뤄지지	-10.7705
▁국가의	-10.7708
▁스페셜	-10.7709
▁이민	-10.7709
▁시점에서	-10.7709
▁민심	-10.7712
▁관계자들	-10.7715
▁급격히	-10.7715
▁밝	-10.7715
나갈	-10.7718
▁던져	-10.7719
▁지원하고	-10.7722
▁○	-10.7725
가스	-10.7726
샵	-10.7726
소송	-10.7728
붙	-10.7728
▁특파원	-10.7728
▁하여	-10.7728
▁환자의	-10.7729
▁언제나	-10.773
▁포장	-10.7732
▁이다	-10.7732
▁로비	-10.7734
이닝을	-10.7734
필드	-10.7737
▁프로모션	-10.7739
▁질문을	-10.774
▁턱	-10.7744
분에	-10.7744
▁피로	-10.7745
▁납품	-10.7749
▁문구	-10.7749
▁죽이	-10.7751
▁역사상	-10.7753
▁극장	-10.7753
▁규모를	-10.7755
▁내릴	-10.7758
▁기용	-10.7759
▁안정성	-10.7759
▁불가능하다	-10.7759
▁듯하다	-10.7759
▁겨	-10.7761
▁티켓	-10.7761
▁받아들여	-10.7764
▁남겨	-10.7766
▁추진하는	-10.7767
정의	-10.7767
▁원리	-10.7767
EA	-10.777
▁기자들과	-10.7771
▁추정된다	-10.7772
▁애정	-10.7773
볼넷	-10.7773
▁손님	-10.7773
▁위험이	-10.7777
▁이루	-10.7778
일까	-10.7778
▁날아	-10.7781
▁준수	-10.7781
▁의미한다	-10.7783
▁대표팀은	-10.7783
▁붙여	-10.7784
월드컵	-10.7784
▁밴드	-10.7787
▁준공	-10.7788
▁사진은	-10.7789
▁연구원	-10.7789
▁삼진	-10.779
되거나	-10.7792
▁탈당	-10.7795
빅	-10.7796
▁박정	-10.7799
맞	-10.78
▁계절	-10.7808
▁주차	-10.7808
▁소요	-10.7809
투자증권	-10.781
▁욕심	-10.7812
▁62	-10.7814
석을	-10.7815
▁이었다	-10.7815
▁모델로	-10.7816
▁욕	-10.7817
▁학술	-10.7818
▁고객의	-10.7818
▁분들이	-10.782
▁신청을	-10.7821
▁국면	-10.7823
▁권한	-10.7824
톡	-10.7824
▁다음은	-10.7828
▁맡았다	-10.7828
부담	-10.783
▁책정	-10.783
92	-10.7832
▁사용하고	-10.7834
▁홍준표	-10.7835
▁묻	-10.7837
▁홈페이지를	-10.7837
▁이후로	-10.7839
봐야	-10.784
▁일각에서는	-10.7841
▁남북관계	-10.7841
▁창립	-10.7841
즈는	-10.7842
▁메이저	-10.7843
▁본질	-10.7843
▁유지할	-10.7844
▁기념해	-10.7845
▁세미나	-10.7847
▁가끔	-10.7849
상에	-10.7852
▁유니폼을	-10.7852
▁보스턴	-10.7853
▁제품으로	-10.7854
었을	-10.7855
▁린	-10.7856
하시	-10.7858
▁모르겠다	-10.7859
▁봉사	-10.7859
id	-10.7865
▁무산	-10.7866
▁주장하는	-10.7868
▁생태	-10.7871
▁펼치	-10.7871
▁멋진	-10.7872
TS	-10.7872
▁이르면	-10.7873
▁무한	-10.7874
▁채워	-10.7877
▁빌려	-10.7877
▁없었	-10.7878
센트	-10.7879
▁인연	-10.7879
▁보험료	-10.7879
▁시가총액	-10.788
▁생애	-10.7881
대사	-10.7882
휘	-10.7882
▁겨우	-10.7884
▁고리	-10.7888
▁평범한	-10.789
▁일본이	-10.7891
▁부천	-10.7892
▁싸우	-10.7892
▁아쉬운	-10.7893
하지는	-10.7893
▁도내	-10.7895
▁저하	-10.7896
▁가벼운	-10.7897
늘	-10.7898
▁신작	-10.7905
▁개막전	-10.7906
▁몫	-10.7906
톨	-10.7906
▁시카고	-10.7906
▁전력을	-10.7907
▁재판부는	-10.7908
사람	-10.7909
▁차별화된	-10.791
보장	-10.791
▁코드	-10.7914
▁맛을	-10.7915
졌지만	-10.7917
▁자랑하는	-10.7918
▁게임이	-10.792
AR	-10.7921
눈	-10.7924
티스	-10.7927
▁순이익	-10.7927
▁대상자	-10.7929
영업	-10.7933
▁눈치	-10.7934
(17	-10.7935
▁기울	-10.7938
▁마이크	-10.7938
▁건의	-10.7939
졸	-10.7942
▁허위	-10.7943
▁스코어	-10.7944
▁체크	-10.7945
▁권위	-10.7946
▁자체를	-10.7948
▁DB	-10.795
▁사라지	-10.7951
▁입국	-10.7957
▁진출에	-10.7959
▁안산	-10.796
그리	-10.7962
▁사회의	-10.7962
▁뽑아	-10.7963
▁삼성화재	-10.7963
▁for	-10.7965
▁간단한	-10.7971
▁뜻이다	-10.7971
하되	-10.7971
▁비공개	-10.7972
▁합의했다	-10.7973
▁초반부터	-10.7975
▁환경부	-10.7975
▁가맹점	-10.7975
▁한쪽	-10.7977
▁금융기관	-10.7977
▁묶어	-10.7978
▁대표를	-10.798
▁치열	-10.798
여건	-10.7981
켓	-10.7981
어서	-10.7981
바람	-10.7982
▁여건	-10.7984
자본	-10.7986
▁아트	-10.7986
▁명절	-10.7987
▁있었습니다	-10.7988
▁회사가	-10.7989
▁나누	-10.799
▁그랜드	-10.7991
▁상대를	-10.7993
▁감동	-10.7994
▁중에서도	-10.7994
▁무엇을	-10.7995
는데요	-10.7996
▁방치	-10.7997
▁무관	-10.7997
▁계정	-10.7999
▁합의를	-10.8
▁헌	-10.8004
궤	-10.8005
▁수상자	-10.8005
AI	-10.8005
▁꼬	-10.8006
▁마스터	-10.8006
집니다	-10.8007
93	-10.8008
▁발동	-10.8009
혔	-10.8011
▁추경	-10.8011
▁참가한	-10.8014
▁61	-10.8016
▁문제와	-10.8016
세로	-10.8016
▁불교	-10.8019
▁돼지	-10.8024
▁복구	-10.8025
▁농촌	-10.8026
▁명성	-10.803
▁김대중	-10.8031
▁한국은행	-10.8033
▁정확하게	-10.8033
▁단장	-10.8034
▁한나라당은	-10.8034
▁예금	-10.8034
91	-10.8034
▁부족하다	-10.8036
▁했을	-10.8036
▁한창	-10.8037
▁샌프란시스코	-10.8038
역을	-10.8038
▁선보이는	-10.8039
▁후에는	-10.8039
▁0.5	-10.8039
멜	-10.8041
▁미소	-10.8041
▁붙잡	-10.8042
털	-10.8042
▁d	-10.8043
▁고생	-10.8043
▁감안해	-10.8045
▁오프라인	-10.8047
낙	-10.8047
▁꺾고	-10.8048
▁재발	-10.8049
▁가상	-10.8049
천여	-10.805
내용	-10.8051
어를	-10.8051
▁순서	-10.8053
▁개봉	-10.8054
끈	-10.8054
se	-10.8054
▁과정이	-10.8056
▁철거	-10.8057
▁과일	-10.8058
보이	-10.806
략	-10.8061
▁명시	-10.8066
보증	-10.8067
▁참조	-10.8067
▁행운	-10.8068
▁금감원	-10.8068
▁상대의	-10.807
러스	-10.807
▁떠난	-10.807
군에	-10.8071
▁팬들에게	-10.8071
▁화가	-10.8071
▁언론에	-10.8072
하느냐	-10.8073
현은	-10.8079
▁손가락	-10.808
▁처분	-10.808
정당	-10.8082
▁67	-10.8084
▁맹활약	-10.8085
▁동향	-10.8086
▁김치	-10.8086
▁규칙	-10.8087
▁근대	-10.8087
▁개발자	-10.8087
▁옷을	-10.8088
▁흥	-10.809
공동	-10.8091
▁일반인	-10.8092
쁘	-10.8092
골프	-10.8092
▁실책	-10.8092
▁간부	-10.8095
상에서	-10.8096
▁인민	-10.8101
▁3%	-10.8102
▁펜	-10.8103
▁순수	-10.8105
▁후보자는	-10.8106
▁요구를	-10.8106
수의	-10.8108
▁위원장이	-10.8109
▁달아	-10.8112
▁갈아	-10.8114
▁목숨을	-10.8115
시간이	-10.8117
▁먹을	-10.8121
▁이루어지	-10.8123
▁취재진	-10.8124
▁이건	-10.8124
▁낮아	-10.8126
▁US	-10.8128
▁마음으로	-10.8129
▁유해	-10.813
▁연다	-10.8131
▁방영	-10.8131
▁줄일	-10.8132
▁인벤	-10.8134
▁홀로	-10.8135
▁마련한	-10.8137
▁총회	-10.8138
▁측의	-10.8139
▁여성들	-10.8139
▁얼음	-10.814
▁승진	-10.8142
▁회전	-10.8145
지와	-10.8146
되던	-10.8146
▁던진	-10.8147
▁원자력	-10.8149
▁어쩔	-10.8149
▁박스	-10.8149
▁없어서	-10.8149
▁옮기	-10.8152
▁외면	-10.8153
▁탁	-10.8154
▁받으며	-10.8158
▁외곽	-10.8159
▁130	-10.8162
▁찾아가	-10.8162
줘	-10.8163
(23	-10.8164
편의	-10.8164
▁영업이익은	-10.8164
▁반성	-10.8167
국의	-10.8168
▁평가다	-10.8168
▁끈	-10.8169
▁있었기	-10.817
나갔다	-10.8175
▁입사	-10.8176
▁일자리를	-10.8176
▁어렵게	-10.8176
▁참사	-10.8176
▁0.1	-10.8179
▁꾸준한	-10.8181
▁활성화를	-10.8183
▁점에	-10.8183
▁벌써	-10.8184
프트	-10.8186
▁수렴	-10.8187
▁그만	-10.8188
지사	-10.819
▁낳	-10.819
▁힘들어	-10.8193
▁복용	-10.8193
▁의류	-10.8193
▁기성용	-10.8196
▁일환으로	-10.8196
ter	-10.8196
▁상환	-10.8196
▁~	-10.8197
맹	-10.8198
MI	-10.8198
▁조지	-10.8198
▁강남구	-10.8199
▁하였다	-10.82
▁시대의	-10.8201
▁맞춘	-10.8203
▁모니터링	-10.8204
웃음	-10.8204
PS	-10.8204
▁즐거움	-10.8205
▁롱	-10.821
▁이하의	-10.821
▁음료	-10.8212
베리	-10.8215
▁쏠	-10.8217
81	-10.8218
않	-10.8219
▁미치지	-10.8219
▁우리나라의	-10.822
차원	-10.8221
어가	-10.8221
▁참여를	-10.8222
▁지수는	-10.8225
게임즈	-10.8227
므로	-10.8228
▁주소	-10.823
▁폭탄	-10.8231
▁삼성전자가	-10.8236
▁180	-10.8236
▁소위	-10.8238
상은	-10.8238
▁보증	-10.8242
▁트리플	-10.8243
▁시세	-10.8243
▁신한은행	-10.8244
▁의약품	-10.8245
▁작가의	-10.8245
액을	-10.8245
▁여성이	-10.8246
▁전사	-10.8246
▁사랑하는	-10.8246
▁플	-10.8249
▁바라	-10.825
▁갖춰	-10.825
원과	-10.8251
▁농가	-10.8252
▁페스티벌	-10.8254
▁주장이	-10.8256
▁합계	-10.8257
분이	-10.8258
▁의원들	-10.8261
지면	-10.8264
몸	-10.8266
▁마이클	-10.8267
▁올릴	-10.8268
▁기조	-10.8273
▁제품에	-10.8274
개소	-10.8274
▁기자회견	-10.8275
▁유감	-10.8277
▁명문	-10.8277
▁99	-10.8279
▁클라	-10.828
▁삼성생명	-10.8282
허가	-10.8283
▁도구	-10.8284
▁58	-10.8284
▁예정입니다	-10.8285
▁문제의	-10.8285
▁당국은	-10.8286
▁경품	-10.8286
업자	-10.8288
▁영향이	-10.8289
▁초반에	-10.8289
▁보내는	-10.8289
SK	-10.8291
▁엑스	-10.8291
▁필드	-10.8296
본다	-10.8298
▁국적	-10.83
▁태어난	-10.83
▁시간은	-10.83
▁컨트롤	-10.8303
▁됐습니다	-10.8304
▁입원	-10.8307
▁만났다	-10.8308
성에	-10.8311
▁읽어	-10.8313
▁조건을	-10.8313
교류	-10.8314
마일	-10.8316
▁경제가	-10.8317
▁의결	-10.8317
▁광장	-10.8317
▁안전한	-10.832
▁서비스가	-10.8321
▁경로	-10.8321
져야	-10.8325
직원	-10.8326
▁관절	-10.8327
▁연결해	-10.8328
놀	-10.8328
▁대가	-10.833
▁발의	-10.833
▁검은	-10.8331
▁즐기	-10.8331
▁정통	-10.8332
▁효	-10.8332
▁인체	-10.8334
▁예상치	-10.8337
▁생각하면	-10.8338
▁모습은	-10.834
▁끝나	-10.8342
▁방침을	-10.8343
▁손흥민은	-10.8348
▁분석이	-10.835
▁가계	-10.8351
친다	-10.8352
작가	-10.8352
권에	-10.8353
▁걸리	-10.8353
▁보다는	-10.8353
수원	-10.8353
보기	-10.8354
▁재직	-10.8356
▁남기	-10.8356
▁혈액	-10.8356
▁감축	-10.8357
▁자존심	-10.8357
5)	-10.8359
▁논의가	-10.836
본부장	-10.836
▁공방	-10.8361
▁제안했다	-10.8363
랭	-10.8364
▁과장	-10.8364
헬	-10.8365
▁로켓	-10.8366
BA	-10.8369
▁할지	-10.8369
▁68	-10.837
졌던	-10.837
▁실전	-10.8373
▁입력	-10.8374
언론	-10.8375
자들	-10.8379
▁알리는	-10.8379
▁백신	-10.838
▁모으고	-10.838
▁젖	-10.8381
▁넣고	-10.8382
▁상관없이	-10.8383
▁SUV	-10.8383
▁도서관	-10.8383
사용	-10.8384
▁서해	-10.8387
▁남쪽	-10.8388
▁근처	-10.8389
▁평가가	-10.839
▁적합한	-10.8391
▁중학교	-10.84
바이오	-10.8401
▁채무	-10.8403
▁동북아	-10.8403
▁박사는	-10.8404
▁나타난	-10.8404
관이	-10.8406
롭게	-10.8412
▁핫	-10.8414
▁보자	-10.8414
▁논란을	-10.8416
▁줄이고	-10.8417
▁정수	-10.8419
▁인터	-10.8421
학습	-10.8422
▁브리핑	-10.8423
모바일	-10.8425
모씨	-10.8425
▁갖는다	-10.8426
이즈	-10.8427
▁파일	-10.8429
▁이끈	-10.843
▁승객	-10.843
▁아무래도	-10.8432
점은	-10.8433
층에	-10.8435
혔다	-10.8435
▁빛을	-10.8436
▁측에	-10.8437
▁일제	-10.8438
▁빠졌다	-10.8438
비서관	-10.8441
하였고	-10.8443
▁서울시장	-10.845
연패를	-10.8453
▁어렵다는	-10.8455
▁출신인	-10.8455
▁시신	-10.8462
센터를	-10.8463
▁FIFA	-10.8463
▁편입	-10.8464
▁잡는	-10.8466
·4	-10.8468
▁총리의	-10.8469
포를	-10.8473
여자	-10.8474
▁샷	-10.8475
▁과정에	-10.8476
▁하나다	-10.8477
버리는	-10.848
가치	-10.848
▁제임스	-10.8481
속도	-10.8483
됐	-10.8484
▁골라	-10.8484
다리	-10.849
▁수비를	-10.849
▁자외선	-10.849
▁당의	-10.849
▁윈	-10.8492
▁좋았다	-10.8492
▁주어	-10.8493
보드	-10.8497
▁만족도	-10.8497
특위	-10.8499
▁무엇이	-10.8499
▁도널드	-10.85
▁복잡한	-10.8502
▁밝히고	-10.8505
▁쿠폰	-10.8506
▁디자인을	-10.8507
유로	-10.8507
▁줄이는	-10.8509
▁오를	-10.8511
▁유니	-10.8512
▁2.0	-10.8513
▁차량을	-10.8513
▁퇴장	-10.8518
▁이혼	-10.8519
▁호투	-10.8519
▁첫째	-10.852
▁윈도	-10.8521
▁LPGA	-10.8523
▁관해	-10.8524
기사	-10.8526
▁판매량	-10.8528
확	-10.8531
HD	-10.8532
▁움직임이	-10.8532
▁올리	-10.8533
▁상임위	-10.8533
위인	-10.8533
▁돕는	-10.8533
포트	-10.8533
타워	-10.8534
▁태도를	-10.8535
▁층	-10.8535
▁결정할	-10.8539
▁진주	-10.854
▁내려가	-10.8541
▁유사한	-10.8543
종을	-10.8543
▁비서실장	-10.8544
준비	-10.8544
▁용어	-10.8545
잘	-10.8546
▁도움	-10.8549
ly	-10.8549
▁인사청문회	-10.855
▁좋고	-10.8551
▁연구팀은	-10.8553
▁늦게	-10.8555
▁선제골을	-10.8556
▁이뤄	-10.8561
um	-10.8561
▁정성	-10.8562
▁위해선	-10.8563
▁현장을	-10.8568
▁등장한다	-10.8568
▁압수수색	-10.8568
▁0.3	-10.8569
시장의	-10.8569
세의	-10.857
▁발판	-10.8572
▁북한과	-10.8573
▁제기되고	-10.8575
▁이길	-10.8575
▁스님	-10.8575
설계	-10.8576
▁넣었다	-10.8579
▁걸고	-10.858
▁포스트시즌	-10.8581
▁문화재	-10.8582
▁기금	-10.8583
▁밝혔	-10.8587
책임	-10.8589
▁이뤄지	-10.8591
▁삼성전자의	-10.8592
▁w	-10.8593
어스	-10.8594
▁그렇지만	-10.8594
▁기반을	-10.8596
▁스테	-10.8598
르트	-10.8601
음에도	-10.8602
▁척추	-10.8603
전환	-10.8604
▁인적	-10.861
▁겪는	-10.861
▁퀘스트	-10.8613
▁무엇인지	-10.8614
▁소송을	-10.8614
유럽	-10.8615
▁꼽히는	-10.8617
▁있었다고	-10.8618
▁참여했다	-10.8619
▁상승률	-10.8621
▁지사는	-10.8621
▁이후에는	-10.8624
▁몽	-10.8624
전은	-10.8625
▁박지성	-10.8625
▁불참	-10.8628
넥	-10.863
▁받았	-10.863
▁공격에	-10.8631
하므로	-10.8631
▁관리를	-10.8632
▁서양	-10.8632
▁포르투갈	-10.8634
EU	-10.8636
점에	-10.8637
▁내각	-10.8641
▁김씨	-10.8641
통일	-10.8642
▁목포	-10.8642
▁추측	-10.8643
▁지적도	-10.8646
▁69	-10.8646
수석	-10.8646
▁국민들이	-10.8648
▁지혜	-10.8651
▁스키	-10.8653
▁납치	-10.8655
▁비슷	-10.8656
▁유학	-10.8658
▁부패	-10.8661
시마	-10.8662
▁내면	-10.8663
▁지분을	-10.8663
▁판매한다	-10.8664
▁정면	-10.8665
▁무척	-10.867
▁탓	-10.867
▁벗	-10.8672
▁남기고	-10.8674
▁소셜	-10.8674
▁되도록	-10.8674
▁쇠고기	-10.8674
▁방안도	-10.8675
▁붉은	-10.8675
군을	-10.8676
▁커버	-10.8677
▁거짓말	-10.8677
▁대통령에게	-10.8678
▁제외하면	-10.8678
▁아니라는	-10.8679
▁가짜	-10.8679
위험	-10.868
▁독서	-10.8681
▁달리고	-10.8681
점검	-10.8683
▁약점	-10.8684
▁야간	-10.8684
▁지어	-10.8687
디스플레이	-10.8687
▁비교하면	-10.8689
체육	-10.8691
(16	-10.8692
었	-10.8694
▁공세	-10.8694
▁돌아오	-10.8696
▁듀	-10.8696
▁며칠	-10.8697
▁기업을	-10.8697
선언	-10.8697
▁게임은	-10.8701
▁업체가	-10.8701
▁사태가	-10.8701
IP	-10.8702
주자	-10.8702
▁사격	-10.8703
현상	-10.8703
▁흡연	-10.8704
▁수혜	-10.8706
▁세월	-10.8709
▁특성상	-10.8709
▁설문조사	-10.871
▁판매하는	-10.8711
미를	-10.8711
▁고양이	-10.8714
▁강요	-10.8715
▁철수	-10.8719
▁배경으로	-10.8719
▁무대에서	-10.8722
소설	-10.8723
▁동계올림픽	-10.8723
▁의원과	-10.8723
▁함유	-10.8723
▁시상식	-10.8726
▁펼칠	-10.873
▁히트	-10.8731
▁얻는	-10.8732
투수	-10.8732
▁챙겨	-10.8732
▁달성했다	-10.8732
▁사로잡	-10.8733
▁기쁘다	-10.8734
▁담았다	-10.8734
▁실시간으로	-10.8735
▁압력	-10.8739
▁열리	-10.8739
▁헤드	-10.874
▁상대가	-10.8742
작전	-10.8743
▁강세를	-10.8747
▁발간	-10.8748
AC	-10.8748
▁장을	-10.8748
▁기준금리	-10.8749
구장에서	-10.875
▁시속	-10.875
력과	-10.8751
▁춤	-10.8753
▁당사자	-10.8754
▁일치	-10.8755
▁콘셉트	-10.8756
수단	-10.8758
▁빼고	-10.8758
CI	-10.8758
▁조용	-10.8759
▁방식이	-10.8761
▁정유	-10.8761
▁누리	-10.8762
▁성경	-10.8762
평형	-10.8763
SI	-10.8765
▁명을	-10.877
il	-10.8771
▁상실	-10.8771
▁시계	-10.8772
널	-10.8774
▁밝히	-10.8775
민족	-10.8775
▁확대를	-10.8776
▁수치다	-10.8777
▁패치	-10.8777
▁CCTV	-10.8778
▁보내고	-10.8779
보건	-10.8781
▁막대한	-10.8783
▁계기	-10.8783
▁줄이	-10.8788
02	-10.8788
▁떼	-10.8788
교사	-10.879
▁침묵	-10.8792
▁생각하지	-10.8799
픽	-10.8799
▁충격을	-10.8804
▁늘어나고	-10.8804
▁데미지	-10.8805
첨	-10.8806
▁사용한다	-10.8806
유통	-10.8807
조합	-10.8807
팀을	-10.8808
뢰	-10.881
▁업체들	-10.881
▁74	-10.8811
▁싶	-10.8812
▁여부에	-10.8813
▁그랬	-10.8814
보안	-10.8814
▁인사들	-10.8815
▁영국의	-10.8818
뷰	-10.8818
▁구호	-10.882
▁주최	-10.8821
▁아마존	-10.8823
▁정서	-10.8826
▁잡기	-10.8827
▁놀라운	-10.8827
▁즐겨	-10.8828
▁감안	-10.883
질을	-10.8832
▁행복한	-10.8832
▁장면이	-10.8833
all	-10.8833
▁것만	-10.8833
▁말도	-10.8834
▁진출한	-10.8834
대한	-10.8838
▁사내	-10.8838
▁가드	-10.8841
▁동맹	-10.8843
▁횟수	-10.8843
방지	-10.8843
광역시	-10.8843
▁증세	-10.8844
▁국민들의	-10.8847
부의	-10.8849
▁벌인	-10.8852
▁에피소드	-10.8854
▁협정	-10.8855
▁센	-10.8856
▁한방	-10.8858
▁스트	-10.8859
▁거리가	-10.886
번의	-10.8861
대에서	-10.8862
▁찍어	-10.8862
▁일어난	-10.8864
▁중점	-10.8864
▁관행	-10.8866
운용	-10.8866
▁메달	-10.8867
▁르	-10.887
호를	-10.8873
▁세우	-10.8874
▁높아졌다	-10.8874
▁완벽하게	-10.8875
▁화력	-10.8875
소프트	-10.8876
▁양자	-10.8877
▁방한	-10.8879
▁가전	-10.888
▁개최한다	-10.888
▁해주	-10.8882
업을	-10.8882
어로	-10.8883
▁선진	-10.8883
▁Z	-10.8885
씨에게	-10.8887
▁개시	-10.889
▁태양광	-10.889
▁바뀌	-10.889
브라	-10.8891
▁못하게	-10.8892
▁사망자	-10.8893
▁없으며	-10.8897
▁국가들	-10.8898
▁비만	-10.8899
▁래	-10.8899
▁펼쳐진다	-10.89
▁토론회	-10.8901
▁없도록	-10.8901
▁제공된다	-10.8902
▁블록체인	-10.8902
▁놓은	-10.8902
▁상위권	-10.8904
▁박상	-10.8905
▁상정	-10.8906
▁부임	-10.8908
▁수능	-10.8908
▁늘어나는	-10.8908
▁시선	-10.8909
▁조심	-10.891
▁처음에는	-10.8911
시키	-10.8911
▁정황	-10.8912
▁쓰기	-10.8913
▁세계를	-10.8915
품을	-10.8916
▁포함됐다	-10.8917
▁최씨	-10.8917
▁화웨이	-10.8917
▁언급한	-10.8918
▁이어가고	-10.8919
되었으며	-10.892
▁토너먼트	-10.892
▁거리를	-10.8921
▁찾지	-10.8927
▁만나는	-10.8931
▁작가는	-10.8932
▁비중	-10.8932
ay	-10.8932
▁뜬	-10.8936
▁훈	-10.8938
보자	-10.894
차관	-10.8942
▁개선을	-10.8945
▁노력이	-10.8946
▁죽은	-10.8947
▁계획이	-10.8948
대학원	-10.8948
▁처음부터	-10.8949
▁곳을	-10.8949
▁모니터	-10.8949
득점을	-10.895
▁올바른	-10.8952
▁이용자들	-10.8952
▁신라	-10.8952
▁시스템이	-10.8952
▁안팎	-10.8953
▁이마트	-10.8958
▁생겨	-10.8959
범죄	-10.8961
▁일하는	-10.8962
▁해결할	-10.8967
▁약한	-10.897
▁이해할	-10.8971
▁똑같은	-10.8971
▁반대하는	-10.8974
▁섬유	-10.8974
사들이	-10.8976
▁전문성	-10.8977
법안	-10.8979
▁번도	-10.8985
▁들어간다	-10.8988
웨	-10.8988
겐	-10.8989
▁일행	-10.8989
▁닭	-10.8991
▁단백질	-10.8992
▁사건의	-10.8992
▁모르	-10.8993
묵	-10.8993
▁찍은	-10.8994
▁의원들은	-10.8994
참여	-10.8996
▁유료	-10.8996
▁나면	-10.8997
▁소속팀	-10.8999
▁규명	-10.8999
▁한류	-10.8999
▁드론	-10.9
▁김연아	-10.9
(13	-10.9001
▁급여	-10.9003
▁안다	-10.9007
▁관점에서	-10.9007
▁신분	-10.9007
▁거세	-10.9008
▁담보	-10.9009
▁유지했다	-10.9009
▁사법	-10.901
▁치유	-10.9013
▁한계가	-10.9013
▁선택한	-10.9015
▁넣은	-10.9016
▁쉽다	-10.9016
▁염두에	-10.9018
▁채우	-10.9018
▁가르	-10.9019
▁오페라	-10.902
▁타격을	-10.9023
▁분열	-10.9024
심리	-10.9028
였는데	-10.9031
ex	-10.9031
▁특성을	-10.9032
▁장점이	-10.9033
구가	-10.9036
▁제품이다	-10.9036
▁주식을	-10.9036
▁캐릭터를	-10.904
메이	-10.9042
▁목표는	-10.9043
▁일본인	-10.9044
▁고양	-10.9044
▁아닐	-10.9046
▁3~4	-10.9047
+	-10.9047
▁황제	-10.9048
▁뒤늦게	-10.9051
▁발탁	-10.9051
긴다	-10.9051
▁의상	-10.9052
▁작품은	-10.9053
▁어찌	-10.9054
부처	-10.9055
▁마련된	-10.9057
=	-10.9057
▁기업들	-10.9058
(26	-10.9059
▁RPG	-10.9059
▁이곳에서	-10.906
▁기지	-10.9063
광장	-10.9065
▁맡기	-10.9066
▁저가	-10.9066
▁필요성을	-10.9068
▁출신으로	-10.9073
▁재고	-10.9073
▁전장	-10.9075
▁교황	-10.9076
▁확보한	-10.9079
경찰	-10.9079
▁양보	-10.9081
▁기본적인	-10.9083
▁타이밍	-10.9085
웰	-10.9087
▁비율은	-10.9087
▁연인	-10.909
▁팬들이	-10.9091
▁거대	-10.9091
되지만	-10.9093
▁별명	-10.9094
▁잡을	-10.9095
▁악재	-10.9096
▁플러스	-10.9096
▁덤	-10.9096
봤	-10.9097
▁약세	-10.9097
▁모험	-10.9097
▁갈등을	-10.9098
▁기다리고	-10.9099
업체인	-10.9099
▁마련됐다	-10.91
▁이념	-10.91
▁브루	-10.9101
▁어린이들	-10.9105
▁주장하고	-10.9107
▁처지	-10.9108
▁횡	-10.9108
(14	-10.911
▁위안부	-10.9112
ne	-10.9113
im	-10.9113
계획을	-10.9113
▁어려움	-10.9115
산업의	-10.9115
▁발목	-10.9117
▁재원	-10.9118
▁강사	-10.9118
▁확대할	-10.9119
▁친박	-10.912
▁도서	-10.9121
▁기업으로	-10.9121
▁마운드	-10.9126
▁“(	-10.9128
▁오늘은	-10.9128
▁과시	-10.9128
▁다운	-10.9129
▁구사	-10.9129
▁요구하고	-10.913
▁인지도	-10.9131
▁조사에서	-10.9131
동의	-10.9134
▁KGC	-10.9134
▁위치를	-10.9136
▁확인하고	-10.9137
리안	-10.9137
▁소중한	-10.9138
해서는	-10.9139
하긴	-10.914
FTA	-10.9141
▁관람객	-10.9144
▁연내	-10.9145
▁CD	-10.9146
▁주차장	-10.915
왔고	-10.9152
▁도출	-10.9155
▁추억	-10.9161
난다	-10.9162
▁움직이는	-10.9164
▁클래스	-10.9166
▁집중적으로	-10.9166
▁판매가	-10.9169
▁학생들의	-10.917
▁바른정당	-10.9171
RO	-10.9173
▁공격적인	-10.9174
대응	-10.9174
▁원료	-10.9176
지역에	-10.9178
▁조리	-10.9178
▁디젤	-10.9179
▁110	-10.9179
▁세상에	-10.9179
▁합성	-10.918
▁틈	-10.9181
▁교정	-10.9182
회가	-10.9182
▁제국	-10.9184
명이다	-10.9185
▁사업장	-10.9186
상승	-10.9187
▁응모	-10.9188
▁일본과	-10.919
▁루이스	-10.9192
▁정규직	-10.9195
▁높고	-10.9197
▁칭찬	-10.9198
▁PD	-10.92
▁공통	-10.92
▁구성해	-10.9202
and	-10.9207
▁선포	-10.9208
od	-10.921
▁잃은	-10.921
▁#	-10.9213
▁보며	-10.9213
▁명분	-10.9215
▁행사가	-10.9215
▁도망	-10.9216
▁시선을	-10.9218
▁전액	-10.9218
밤	-10.9219
▁방위	-10.9219
▁성적이	-10.9219
▁거점	-10.922
▁신문은	-10.922
▁적용한	-10.9221
▁뇌물	-10.9223
▁대리	-10.9226
▁견인	-10.9229
▁서울시는	-10.923
▁우즈	-10.9231
▁웹사이트	-10.9232
▁낮다	-10.9234
▁제조사	-10.9234
달라	-10.9235
▁특화	-10.9236
▁아이가	-10.9236
아트	-10.9237
▁정신적	-10.9237
▁선수들과	-10.9239
▁숙박	-10.9239
▁제외하고	-10.924
시기	-10.9242
▁내놓	-10.9242
▁대회는	-10.9243
▁vs	-10.9246
공무원	-10.9247
▁입장이	-10.9247
▁88	-10.9249
긋	-10.925
▁NHN	-10.9251
▁주역	-10.9251
▁시너지	-10.9252
고속도로	-10.9255
료를	-10.9256
▁중국인	-10.9256
디자인	-10.9259
되었고	-10.9259
시켰	-10.9261
▁신차	-10.9262
▁중도	-10.9262
회복	-10.9262
▁멀	-10.9263
회에서	-10.9267
▁수여	-10.9268
패스	-10.9269
▁때려	-10.9269
▁베테랑	-10.9271
▁털	-10.9271
▁눈물을	-10.9271
▁손실	-10.9271
▁강조한	-10.9272
리오	-10.9272
▁끝으로	-10.9275
보수	-10.9276
▁떡	-10.9276
▁일찌감치	-10.9277
▁환자가	-10.9279
(27	-10.928
▁모바일게임	-10.9281
▁구체적	-10.9281
▁당황	-10.9281
▁타결	-10.9283
▁주도권을	-10.9286
▁특별히	-10.9286
선수권대회	-10.9287
▁전날보다	-10.9288
est	-10.9288
▁팩	-10.9288
주로	-10.9289
스토리	-10.9291
법상	-10.9295
▁판단했다	-10.9295
▁국무부	-10.9296
길을	-10.9296
▁호조	-10.93
▁최고경영자	-10.93
▁속도로	-10.9301
▁출시를	-10.9302
▁약화	-10.9303
▁대표적	-10.9303
▁좌절	-10.9303
▁게임에	-10.9303
▁가방	-10.9305
▁사업의	-10.9306
▁아무도	-10.9307
▁띄	-10.9309
▁페이스	-10.931
ut	-10.931
ot	-10.9312
▁잊지	-10.9313
화와	-10.9313
넌	-10.9315
▁여행을	-10.9317
▁140	-10.9319
천명	-10.9319
또	-10.932
▁지켰다	-10.9321
▁스튜디오	-10.9321
▁난다	-10.9322
▁점령	-10.9322
상이	-10.9323
▁조세	-10.9323
방을	-10.9324
▁민주당이	-10.9324
▁공동체	-10.9326
▁무너지	-10.9328
▁고객을	-10.9329
▁선을	-10.933
▁웨이	-10.933
▁기반의	-10.9333
됐을	-10.9335
▁베르	-10.9335
▁올리며	-10.9336
▁직원들	-10.9337
▁경향이	-10.9338
▁본래	-10.9338
▁영혼	-10.9339
▁산불	-10.934
▁증정한다	-10.9343
▁내놨다	-10.9344
▁시작하는	-10.9349
드로	-10.9349
▁발견된	-10.935
▁공인	-10.935
▁넘어가	-10.9351
▁76	-10.9351
▁결론을	-10.9351
▁불만	-10.9352
▁유벤투스	-10.9355
▁이르기까지	-10.9355
ew	-10.9356
로우	-10.9356
▁오지	-10.9357
▁군인	-10.9357
킷	-10.9359
▁전인	-10.936
▁멋	-10.936
▁아이패드	-10.9361
▁서서히	-10.9361
▁현실을	-10.9362
▁같아	-10.9366
▁나왔	-10.9367
▁시정	-10.9368
▁지방자치단체	-10.937
학적	-10.9371
▁소규모	-10.9372
▁공조	-10.9373
▁유독	-10.9373
해져	-10.9373
▁장비를	-10.9374
렐	-10.9374
▁연수	-10.9375
▁그림을	-10.9376
뼈	-10.9376
▁내주	-10.9376
▁공직	-10.9378
연금	-10.9379
룬	-10.938
▁뮌헨	-10.9383
시장에	-10.9383
▁검찰의	-10.9383
▁전체를	-10.9387
▁어려움이	-10.9389
▁신경을	-10.9391
▁컴	-10.9391
▁시작할	-10.9391
▁중국에	-10.9392
▁구역	-10.9393
▁출근	-10.9394
▁관심사	-10.9394
▁먹어	-10.9395
권의	-10.9396
▁위탁	-10.9397
▁켜	-10.9397
▁보건복지부	-10.9398
▁식량	-10.9398
▁확대하고	-10.9399
▁바꿀	-10.9399
▁보고서를	-10.9399
▁새정치민주연합	-10.94
▁투입해	-10.94
▁라인업	-10.94
렘	-10.9402
▁주인공이	-10.9402
▁매월	-10.9403
▁못하면	-10.9404
▁읽는	-10.9405
▁변화에	-10.9408
▁얻	-10.941
▁신발	-10.9413
▁무인	-10.9413
▁스윙	-10.9414
았지만	-10.9415
쟁	-10.9415
▁생기	-10.9415
과학기술	-10.9416
▁룰	-10.9417
▁국회에	-10.942
▁주식시장	-10.942
▁퍼포먼스	-10.9421
▁동결	-10.9422
ge	-10.9422
▁불과했다	-10.9422
무기	-10.9423
▁유전	-10.9425
플러스	-10.9429
면적	-10.9429
▁당부	-10.9435
정권	-10.9436
▁잇	-10.9437
▁처방	-10.9438
▁판매를	-10.9438
▁전망치	-10.9439
▁살리	-10.9439
▁현대캐피탈	-10.9439
뇨	-10.9439
▁장면을	-10.944
냈고	-10.9442
▁정신을	-10.9443
▁원인을	-10.9443
뚫	-10.9443
▁타구	-10.9443
▁유지하는	-10.9447
▁전달했다	-10.9453
▁헌재	-10.9453
▁수익률	-10.9454
~10	-10.9454
힘	-10.9455
자들에게	-10.9457
▁않았다고	-10.946
선물	-10.946
▁좋	-10.946
▁정상회의	-10.9461
위와	-10.9461
▁해외에서	-10.9464
▁뒤진	-10.9465
퀴	-10.9465
▁태어나	-10.9466
▁가세	-10.9469
▁청와대는	-10.947
▁땐	-10.947
▁전월	-10.9474
민이	-10.9474
▁의원들이	-10.9476
▁동화	-10.9477
▁펼친	-10.9477
정보를	-10.9481
단에	-10.9481
PO	-10.9482
▁장수	-10.9485
▁무소속	-10.9485
▁바꾸는	-10.9487
넬	-10.9494
EC	-10.9494
▁있으므로	-10.9494
▁부회장은	-10.9496
▁사인	-10.9496
▁일요일	-10.9496
흡	-10.95
▁고르	-10.95
▁보아	-10.95
▁곤	-10.9501
▁부르는	-10.9501
▁않았습니다	-10.9506
▁정보통신	-10.9506
버린다	-10.9506
위원회가	-10.9507
▁달린	-10.9508
▁자신감	-10.951
▁바뀐	-10.9511
▁내륙	-10.9512
▁순식간에	-10.9515
▁전격	-10.9515
▁작품이	-10.9517
▁그것도	-10.9517
됐기	-10.9518
▁관객들	-10.9518
▁베이스	-10.9522
▁1995	-10.9523
▁떨어진다	-10.9526
▁착공	-10.9528
▁하거나	-10.9528
▁기대감	-10.953
▁떨어졌	-10.953
▁자세히	-10.953
▁IoT	-10.953
DC	-10.9532
▁추진한다	-10.9532
▁기업과	-10.9533
▁나이가	-10.9537
▁제공해	-10.9537
▁양쪽	-10.9538
▁77	-10.9541
▁케이스	-10.9541
첼	-10.9541
▁이어진다	-10.9542
고등학교	-10.9543
피해	-10.9543
▁물품	-10.9545
▁한꺼번에	-10.9545
▁포수	-10.9546
▁이렇다	-10.9546
올해	-10.9547
▁저축은행	-10.9547
▁전반적으로	-10.9548
났	-10.955
▁데이	-10.955
▁정국	-10.955
▁연령	-10.9551
▁73	-10.9551
▁증인	-10.9551
▁브라운	-10.9552
▁충분	-10.9552
▁바뀌었다	-10.9554
▁매진	-10.9557
▁튀	-10.9559
▁방북	-10.956
분간	-10.9562
▁토요일	-10.9563
▁확인한	-10.9564
▁소재로	-10.9564
▁공익	-10.9565
븐	-10.9565
▁00	-10.9566
리나	-10.9566
▁물러	-10.9567
▁인용해	-10.9567
▁남한	-10.9567
브랜드	-10.9567
▁달러화	-10.9569
▁오류	-10.9569
제약	-10.957
▁구원	-10.9572
드를	-10.9572
▁유기	-10.9572
▁파운드	-10.9573
▁익숙	-10.9573
▁애초	-10.9574
MC	-10.9575
▁곁	-10.9578
▁편의	-10.9579
▁얘기가	-10.9579
도서관	-10.9581
▁영남	-10.9581
▁직면	-10.9582
▁맞붙	-10.9582
▁서비스는	-10.9583
▁국토	-10.9584
▁행위를	-10.9586
으로서의	-10.9587
▁투자가	-10.9587
▁나타나고	-10.9587
수입	-10.9588
▁기구	-10.9591
▁김해	-10.9592
▁세계적	-10.9593
▁회피	-10.9593
▁최저임금	-10.9593
▁정책에	-10.9595
▁손으로	-10.9598
▁오른발	-10.9598
▁미국에	-10.9599
기만	-10.96
▁정도는	-10.9601
▁이들에게	-10.9602
▁선호하는	-10.9604
더스	-10.9606
▁문장	-10.9606
▁증대	-10.9609
▁함께하는	-10.9609
▁상식	-10.961
캠프	-10.9611
▁재계약	-10.9614
비스	-10.9614
▁나노	-10.9614
▁유승민	-10.9615
▁난민	-10.9617
▁고스란히	-10.9619
창업	-10.9619
om	-10.9621
▁길게	-10.9623
▁꾀	-10.9623
▁최우선	-10.9623
해볼	-10.9625
하기에	-10.9627
▁역할이	-10.9627
▁내세우	-10.9628
연합회	-10.9629
전력	-10.963
FA	-10.9631
▁벌여	-10.9633
▁썼	-10.9635
▁벌이는	-10.9636
▁자라	-10.9638
냈	-10.9638
구는	-10.9639
▁비판을	-10.9641
행을	-10.9641
꼬	-10.9641
위원장은	-10.9642
▁사건에	-10.9643
▁다행	-10.9643
법으로	-10.9644
▁최소한	-10.9644
▁매물	-10.9646
▁직접적인	-10.9646
▁중립	-10.9647
부르크	-10.9647
▁추구하는	-10.9647
▁없으면	-10.9649
셋	-10.9649
▁소음	-10.965
▁메르스	-10.9652
▁주춤	-10.9653
▁혹시	-10.9654
▁됐다고	-10.9654
▁평택	-10.9658
▁영장	-10.9659
▁인디	-10.966
기계	-10.9661
▁대행	-10.9662
▁청산	-10.9663
▁적을	-10.9664
▁빚어	-10.9666
▁이후에	-10.9672
▁스타디움에서	-10.9673
▁불안감	-10.9674
시간을	-10.9675
▁도는	-10.9675
그러	-10.9675
▁아닙니다	-10.9676
▁항공사	-10.9676
▁당선자	-10.9676
▁압도적인	-10.9678
▁출력	-10.9681
▁영토	-10.9682
▁민주화	-10.9684
▁재배	-10.9684
▁의지가	-10.9687
▁방송을	-10.9688
▁탐	-10.9688
▁수영	-10.9688
▁의원을	-10.9688
▁하는지	-10.9691
▁일으킨	-10.9691
▁주고받	-10.9694
▁잇는	-10.9695
▁사고를	-10.9699
▁말하고	-10.9701
▁드림	-10.9704
▁치른다	-10.9708
▁칩	-10.9708
▁사람과	-10.9711
▁서울은	-10.9717
▁물러나	-10.9717
▁주가는	-10.9718
▁대변	-10.9719
te	-10.972
▁1996	-10.9722
▁SKT	-10.9723
마트	-10.9724
▁쌓아	-10.9726
▁나오기	-10.9727
▁달러를	-10.9729
▁방식의	-10.973
▁각오를	-10.973
▁오피스텔	-10.9731
▁시연	-10.9731
낭	-10.9732
▁주민들이	-10.9732
▁잠정	-10.9733
관계를	-10.9733
▁출시했다	-10.9737
하기는	-10.9738
위기	-10.974
벨트	-10.9741
▁다음으로	-10.9743
시설을	-10.9744
전문가	-10.9747
▁부장	-10.9748
▁돋	-10.9752
▁간편	-10.9753
하신	-10.9753
▁느끼	-10.9754
▁작업이	-10.9756
ity	-10.9757
▁불을	-10.9758
자들을	-10.9759
최근	-10.9759
엔터테인먼트	-10.9761
▁김수	-10.9762
▁최하위	-10.9762
▁갈등이	-10.9765
▁바랍니다	-10.9766
▁제조업체	-10.9767
▁2.5	-10.977
▁발표할	-10.9771
경쟁력	-10.9771
거리는	-10.9773
▁이내에	-10.9774
▁수확	-10.9775
▁기량을	-10.9777
▁스테이지	-10.9777
한데	-10.9778
▁노력하겠다	-10.9778
▁유명하다	-10.978
▁테이블	-10.9781
했으면	-10.9781
제작	-10.9782
▁번의	-10.9784
렀다	-10.9785
▁문화체육관광부	-10.9785
▁초래	-10.9787
▁싱	-10.9787
▁편의점	-10.9788
식으로	-10.9788
▁안건	-10.9789
▁노하우를	-10.979
▁핵무기	-10.9791
▁71	-10.9791
▁존경	-10.9791
▁안고	-10.9792
▁듀얼	-10.9793
▁이름은	-10.9793
▁탈모	-10.9793
빵	-10.9794
▁수색	-10.9795
▁나타난다	-10.9795
▁포인트를	-10.9795
▁IPTV	-10.9796
▁이룬	-10.9797
▁운송	-10.9798
▁하나를	-10.9801
▁압	-10.9802
▁텐데	-10.9802
▁말씀을	-10.9805
▁알아보	-10.9808
꾸	-10.9808
▁전반적인	-10.981
이용	-10.9812
권은	-10.9813
▁시공	-10.9813
▁활발한	-10.9813
▁의학	-10.9816
▁금강산	-10.9818
▁소매	-10.9818
▁기관은	-10.9818
▁우세	-10.9818
마케팅	-10.9818
▁문제다	-10.9819
루스	-10.9821
▁나눔	-10.9821
▁신중	-10.9823
네트워크	-10.9823
(30	-10.9825
앞으로	-10.9827
▁아쉽게	-10.983
▁결과적으로	-10.9831
▁인테리어	-10.9832
▁용역	-10.9833
▁카타르	-10.9833
야구	-10.9838
▁효과적으로	-10.9841
go	-10.9843
▁SM	-10.9844
론이	-10.9846
▁구매할	-10.9848
회의에서	-10.9852
개와	-10.9855
▁북한을	-10.9857
▁단점	-10.9857
▁기어	-10.9861
▁그러한	-10.9861
▁이겼다	-10.9862
▁느끼고	-10.9862
▁물결	-10.9865
▁현대건설	-10.9865
받지	-10.9867
▁아마추어	-10.9867
▁내리는	-10.987
▁만루	-10.9873
▁압도	-10.9873
▁아이돌	-10.9875
▁날개	-10.9875
▁곳곳에서	-10.9876
▁날이	-10.9879
계를	-10.9881
▁폴란드	-10.9881
인삼공사	-10.9882
▁균형을	-10.9882
▁맨유는	-10.9884
▁소련	-10.9884
▁모인	-10.9885
▁마침내	-10.9887
▁광화문	-10.9887
▁걷	-10.989
점에서	-10.9892
▁앱을	-10.9893
▁무렵	-10.9895
▁가족이	-10.9896
되도록	-10.9897
라스	-10.9897
▁치매	-10.9899
▁저작권	-10.9902
▁화장실	-10.9905
▁현대자동차	-10.9906
▁홈경기	-10.9906
▁지원금	-10.9906
▁짧	-10.9908
총회	-10.9909
▁일부를	-10.991
▁관측이	-10.9911
▁사건은	-10.9913
▁기업인	-10.9913
▁표결	-10.9913
▁전신	-10.9914
▁일제히	-10.9916
▁분석해	-10.9916
▁상영	-10.9921
▁숙소	-10.9922
오늘	-10.9922
건을	-10.9922
▁자가	-10.9923
▁세계랭킹	-10.9923
미술	-10.9923
▁정상에	-10.9923
▁기대감을	-10.9927
▁분량	-10.9929
▁해방	-10.993
▁있겠	-10.9931
▁사용하지	-10.9933
그룹은	-10.9933
수와	-10.9934
▁기간이	-10.9935
▁대학교	-10.9935
▁거치	-10.9938
리조트	-10.9941
▁95	-10.9942
제주	-10.9943
▁공격이	-10.9946
어도	-10.9948
▁성공적인	-10.9948
▁해주는	-10.9949
▁6000	-10.9949
설비	-10.995
▁공격력	-10.9952
▁떨어지	-10.9955
▁예정이며	-10.9956
▁막는	-10.9956
왔던	-10.9958
엔진	-10.9959
▁기적	-10.9963
▁상처를	-10.9963
▁중독	-10.9964
▁계획이라고	-10.9965
▁마스크	-10.9966
▁생긴다	-10.9968
당은	-10.9972
▁쇄신	-10.9973
▁북쪽	-10.9973
▁산업혁명	-10.9974
▁날씨가	-10.998
▁가져가	-10.998
특별	-10.9983
▁출자	-10.9983
▁메이크업	-10.9984
꺾	-10.9986
▁바라는	-10.9988
▁1970	-10.9989
된다면	-10.9989
▁염증	-10.9992
▁기술로	-10.9993
▁건강을	-10.9994
▁일에	-10.9994
▁모듈	-10.9998
▁잠재	-10.9998
민은	-10.9999
▁금융감독원	-11
국이	-11.0002
센터는	-11.0003
▁기사를	-11.0003
▁화합	-11.0003
▁탁월한	-11.0004
▁내게	-11.0005
▁자랑한다	-11.0005
▁믿	-11.0005
▁900	-11.0007
▁사용자가	-11.0009
▁돼야	-11.0011
인식	-11.0012
▁없던	-11.0012
▁소비자들의	-11.0014
▁면역	-11.0016
에서만	-11.0018
시장은	-11.0023
▁근거로	-11.0023
▁딜러	-11.0027
감사	-11.0028
▁포스트	-11.003
▁수소	-11.0032
무라	-11.0032
▁성장할	-11.0033
▁정무	-11.0033
▁승격	-11.0033
▁교통사고	-11.0033
▁걸릴	-11.0035
▁서울에서	-11.0036
▁위대한	-11.0036
▁두루	-11.0042
▁전자랜드	-11.0044
졌	-11.0044
농구	-11.0045
▁제작한	-11.0046
▁사연	-11.0048
시절	-11.0048
▁운영한다	-11.005
▁화제가	-11.0051
▁스마트폰을	-11.0051
터를	-11.0052
▁무엇인가	-11.0053
스테	-11.0053
▁약속을	-11.0056
해줄	-11.0058
▁만하다	-11.0058
▁커플	-11.0058
▁간에	-11.0058
▁강화하는	-11.0059
▁됐고	-11.0059
▁준비했다	-11.006
▁시중	-11.006
겼	-11.0061
▁금융권	-11.0062
▁고조	-11.0063
▁싶지	-11.0063
▁기분이	-11.0064
▁발병	-11.0064
▁위원장의	-11.0065
▁혹	-11.0065
▁i	-11.0069
레이션	-11.007
나가는	-11.0072
닉스	-11.0073
광주	-11.0073
▁경영진	-11.0075
▁조회	-11.0075
▁이걸	-11.0076
▁지키는	-11.0077
▁영동	-11.0078
민의	-11.008
▁날리	-11.008
▁밝은	-11.0081
▁최순실	-11.0081
▁지침	-11.0082
으려	-11.0082
사례	-11.0084
▁걸음	-11.0085
▁협상이	-11.0085
▁연구진	-11.0086
▁신도시	-11.0087
▁그건	-11.0087
▁구름	-11.0088
▁삼성의	-11.009
▁신당	-11.0093
해달라	-11.0097
▁예상보다	-11.0098
▁일도	-11.0098
▁규제를	-11.0099
▁만났	-11.0101
▁산정	-11.0102
미래	-11.0102
▁왼발	-11.0104
▁불가	-11.0105
▁반박	-11.0105
틸	-11.0106
▁유아	-11.0107
웠	-11.0108
▁세제	-11.0108
▁맥락	-11.0109
시장을	-11.0111
▁심각	-11.0112
▁UFC	-11.0115
▁좀처럼	-11.0116
▁명단에	-11.0117
▁제안을	-11.0121
▁조사에	-11.0121
▁나지	-11.0122
ate	-11.0122
▁구조를	-11.0122
▁프로젝트를	-11.0124
▁방식이다	-11.0129
▁거라고	-11.013
체가	-11.0131
▁패배를	-11.0132
▁붙어	-11.0135
▁고통을	-11.0137
▁따내	-11.014
▁경유	-11.014
▁확률이	-11.0143
살이	-11.0144
구단	-11.0145
▁02	-11.0146
▁거래량	-11.0147
콘텐츠	-11.0147
▁족	-11.015
▁카이	-11.015
▁구성됐다	-11.0151
▁던지	-11.0152
▁발주	-11.0154
▁보복	-11.0154
▁클린턴	-11.0155
▁구성돼	-11.0155
▁들어와	-11.0156
▁흔들리	-11.0159
▁공식적으로	-11.0162
회계	-11.0162
▁때문으로	-11.0162
뱃	-11.0166
▁싶었다	-11.0166
▁기술과	-11.0167
초를	-11.0167
▁국민은행	-11.0168
▁개인적으로	-11.0169
AP	-11.0169
행동	-11.017
▁온갖	-11.0171
▁The	-11.0173
▁플라	-11.0174
조사를	-11.0176
물로	-11.0177
▁프로농구	-11.0179
▁필요할	-11.018
▁78	-11.0181
▁넷마블	-11.0182
▁공주	-11.0182
주민	-11.0182
▁자리매김	-11.0182
▁동해안	-11.0182
▁전형	-11.0183
▁날려	-11.0183
▁고무	-11.0184
▁방안이	-11.0184
▁이뤘다	-11.0184
▁세금을	-11.0186
마이	-11.0189
절차	-11.0189
▁셰	-11.0189
을까	-11.0189
▁원천	-11.019
▁가능성에	-11.0192
▁부재	-11.0192
되어야	-11.0192
▁죽어	-11.0193
▁촛불	-11.0193
▁예보	-11.0194
▁리조트	-11.0195
튜	-11.0196
계약을	-11.0196
▁동점골	-11.0197
곳에	-11.0201
▁결단	-11.0201
계열	-11.0201
▁명단	-11.0202
▁담당하는	-11.0202
~4	-11.0202
있게	-11.0205
▁부착	-11.0206
AS	-11.0208
팡	-11.0209
▁뉴질랜드	-11.021
부에	-11.0215
ST	-11.0216
겠고	-11.0216
▁지키고	-11.0216
▁벌어졌다	-11.0217
티브	-11.0217
할지	-11.0218
▁펼친다	-11.0219
▁사업비	-11.0219
▁총장은	-11.022
장애인	-11.022
▁다녀	-11.022
타이	-11.0221
▁늦어	-11.0222
▁슈팅으로	-11.0223
▁녹취	-11.0224
▁갔	-11.0225
▁감상	-11.0225
결정	-11.0225
▁김형	-11.0227
▁활용하는	-11.0228
갑니다	-11.0228
▁줄기세포	-11.0229
▁시기를	-11.0229
▁폰	-11.023
▁속성	-11.0231
대구	-11.0232
▁바라보는	-11.0233
▁논의할	-11.0235
▁않겠다는	-11.0236
▁애니	-11.0236
▁맺고	-11.0237
종이	-11.0238
▁났다	-11.0238
▁편이	-11.0239
▁했으며	-11.0241
ul	-11.0241
▁데이비드	-11.0242
▁피의자	-11.0242
▁고백	-11.0243
안은	-11.0243
▁국제사회	-11.0243
정지	-11.0243
들과의	-11.0248
▁침투	-11.0248
법원	-11.0249
네스	-11.025
분쯤	-11.0251
▁다니는	-11.0251
호의	-11.0252
▁출연해	-11.0252
여부	-11.0253
▁취향	-11.0254
▁천안함	-11.0254
배를	-11.0255
칩	-11.0255
▁중요성을	-11.0256
▁감면	-11.0256
▁운영을	-11.0262
봐	-11.0263
자산운용	-11.0264
으로서는	-11.0265
▁록	-11.0267
▁커다란	-11.027
▁끌어올리	-11.027
스런	-11.027
▁용병	-11.0271
▁리비아	-11.0271
▁당원	-11.0271
▁금속	-11.0273
▁이외에	-11.0273
▁개발해	-11.0273
▁대치	-11.0275
▁형식으로	-11.0275
▁병역	-11.0275
빔	-11.0277
▁문화예술	-11.0277
▁끝나고	-11.0279
▁김선	-11.0279
▁추위	-11.028
▁벨기에	-11.028
▁움	-11.0281
▁나라의	-11.0284
위원회의	-11.0285
▁파주	-11.0287
끔	-11.0289
▁느껴	-11.029
▁임무	-11.029
▁기술은	-11.0292
▁트레	-11.0292
인권	-11.0292
돔	-11.0293
▁핀	-11.0294
▁좋게	-11.0294
▁적도	-11.0295
▁실종	-11.0296
▁편지	-11.0297
▁체감	-11.0298
▁불이	-11.0301
▁정도를	-11.0303
▁란	-11.0303
▁구제역	-11.0306
▁커질	-11.0308
▁성우	-11.0309
▁대목	-11.031
▁주시	-11.031
매출	-11.0313
▁돌풍	-11.0313
(28	-11.0314
▁외신	-11.0314
▁요인이	-11.0314
석은	-11.0321
전용	-11.0322
▁뛰는	-11.0322
▁가중	-11.0323
▁부사장은	-11.0323
아가	-11.0325
펀	-11.0329
▁추산	-11.0329
▁떨어질	-11.0329
▁않다고	-11.0331
▁유선	-11.0335
▁영화를	-11.0336
▁상품권	-11.0336
▁팬들은	-11.0338
▁에어컨	-11.0338
▁주변의	-11.0339
▁우리나라는	-11.0339
▁주름	-11.0339
▁1994	-11.0342
▁맛이	-11.0345
▁위험한	-11.0348
▁레스토랑	-11.0349
▁사용되는	-11.0349
▁수습	-11.035
켜	-11.0351
▁건강보험	-11.0351
▁금융시장	-11.0352
▁업계의	-11.0353
▁사장이	-11.0355
회원	-11.0355
▁기다리	-11.0357
▁밝혀졌다	-11.0357
지역의	-11.0362
(32	-11.0363
▁시민들이	-11.0363
▁했다는	-11.0364
▁계층	-11.0366
▁맞다	-11.0366
▁것이라며	-11.0367
▁경신	-11.0372
만으로도	-11.0372
▁간담회	-11.0372
▁과세	-11.0373
쉽	-11.0374
당이	-11.0376
▁나타날	-11.0377
▁동남아	-11.0381
▁클리어	-11.0383
▁시행령	-11.0384
▁미흡	-11.0385
수지	-11.0385
지표	-11.0388
위에서	-11.0391
▁객실	-11.0391
▁나름	-11.0391
▁전방	-11.0392
▁팔아	-11.0392
▁강하다	-11.0394
▁하루에	-11.0394
▁계단	-11.0395
▁고지	-11.0396
▁웃음	-11.0398
▁정상적인	-11.04
제공	-11.0403
▁양키스	-11.0404
▁요구한	-11.0404
▁춘	-11.0405
▁택	-11.041
▁금호	-11.041
▁쉽고	-11.041
▁수차례	-11.0411
▁겨냥한	-11.0414
해양	-11.0414
▁않으며	-11.0416
▁예정이라고	-11.042
▁유치원	-11.042
▁단일화	-11.0421
로스	-11.0421
▁그녀	-11.0423
▁갈라	-11.0423
▁됐	-11.0427
▁전문가들의	-11.0428
듬	-11.043
▁그날	-11.0432
데이터	-11.0432
▁종로구	-11.0436
드립니다	-11.0437
▁장관의	-11.0442
▁신기	-11.0442
▁이대호	-11.0442
사무	-11.0443
▁구미	-11.0443
▁이곳에	-11.0444
아리	-11.0446
었으나	-11.0446
총장	-11.0447
▁진로	-11.0447
▁킬	-11.0447
▁승률	-11.045
▁주문했다	-11.045
▁정보가	-11.045
▁황교안	-11.045
정이	-11.0452
▁참여정부	-11.0454
전선	-11.0454
▁검사를	-11.0454
▁않는다고	-11.0455
비와	-11.0455
▁현대모비스	-11.0457
▁지음	-11.0457
▁불가능한	-11.0458
▁준비가	-11.0458
▁물어	-11.0461
모임	-11.0461
합의	-11.0464
▁인근에	-11.0464
▁반박했다	-11.0464
땅	-11.0466
컷	-11.047
해주고	-11.0471
짝	-11.0472
동에	-11.0475
▁측근	-11.0475
이냐	-11.0475
▁내놓았다	-11.0476
▁다르	-11.0477
▁생각은	-11.0478
드가	-11.0479
▁기증	-11.0479
PP	-11.0481
▁거예요	-11.0482
▁주민들의	-11.0482
CO	-11.0483
BI	-11.0485
▁사후	-11.0485
혁명	-11.0489
▁보험사	-11.049
▁엔씨소프트	-11.049
못	-11.0494
▁매니저	-11.0494
물량	-11.0495
▁카카오톡	-11.0495
었으며	-11.0496
▁하드웨어	-11.0497
▁미뤄	-11.0501
▁탄탄한	-11.0502
실점으로	-11.0502
▁직구	-11.0503
포드	-11.0503
▁들었	-11.0505
▁폭으로	-11.0506
자마자	-11.0506
단장	-11.0507
맥스	-11.0508
▁동아시아	-11.051
▁민감한	-11.0512
▁수분	-11.0512
단과	-11.0514
▁마켓	-11.0518
▁인형	-11.0518
▁찾	-11.0521
▁보건	-11.0522
▁사양	-11.0522
경찰서	-11.0523
▁우유	-11.0523
▁경호	-11.0524
▁회사를	-11.0525
▁분위기다	-11.0526
신용	-11.0526
▁키워드	-11.0526
▁결선	-11.0527
▁KTF	-11.0527
▁준비하는	-11.0528
▁징	-11.0529
▁광고를	-11.0532
되는데	-11.0532
▁가깝다	-11.0532
▁금품	-11.0535
▁끈다	-11.0535
▁끊어	-11.0536
▁피할	-11.0538
▁유럽연합	-11.0539
▁주사	-11.054
▁정의당	-11.054
▁대한민국의	-11.054
▁이윤	-11.0541
▁한국전력	-11.0542
주의보	-11.0544
지검	-11.0544
▁밸런스	-11.0545
▁환경에서	-11.0545
▁빵	-11.0545
▁엑	-11.0546
경남	-11.0548
▁통화에서	-11.0549
▁이듬해	-11.0552
▁01	-11.0552
된다는	-11.0553
▁쓴다	-11.0555
▁습	-11.0556
▁사찰	-11.0557
달라고	-11.0557
▁바꾼	-11.0558
▁달라고	-11.0558
▁생물	-11.0559
▁나은	-11.056
▁입점	-11.0563
▁뛴	-11.0563
▁진학	-11.0563
▁회원국	-11.0563
▁추신수	-11.0564
▁준결승	-11.0564
보다도	-11.0564
블록	-11.0567
》	-11.0567
▁자식	-11.057
통을	-11.0571
▁제로	-11.0575
▁푸른	-11.0575
오르	-11.0578
▁놀라	-11.0579
hp	-11.058
▁공기업	-11.058
탈삼진	-11.0584
▁유럽의	-11.0585
▁응용	-11.0587
획	-11.0587
▁유격수	-11.0588
▁희생자	-11.0589
였으며	-11.0591
작업을	-11.0592
▁약속했다	-11.0592
▁해마다	-11.0594
▁사태를	-11.0595
SS	-11.0595
▁하니	-11.0596
▁현대중공업	-11.0598
쪽으로	-11.0603
▁전투기	-11.0603
▁광주시	-11.0604
▁전진	-11.0604
▁순천	-11.0606
▁검출	-11.0606
▁갚	-11.061
▁자료에	-11.0611
국내	-11.0611
▁김병	-11.0611
▁끝났다	-11.0612
▁산책	-11.0614
▁이겨	-11.0615
기업의	-11.062
▁듣	-11.062
▁않겠다	-11.062
▁수시로	-11.0622
▁감수	-11.0624
▁정책이	-11.0625
▁파악하고	-11.0625
▁강화해	-11.0625
그래	-11.0628
▁존재하는	-11.0628
시스템을	-11.063
▁예수	-11.063
▁캔	-11.063
▁심사를	-11.0631
사령부	-11.0631
청은	-11.0632
▁지향	-11.0632
▁치료제	-11.0634
▁타이어	-11.0634
▁동행	-11.0636
▁통증이	-11.0638
▁오토	-11.064
▁살펴보	-11.0643
▁활동에	-11.0644
정원	-11.0644
융합	-11.0645
▁편의성	-11.0646
▁어린이집	-11.0649
▁우승자	-11.0652
▁신부	-11.0654
▁행사에서	-11.0654
▁보고서는	-11.0655
▁관계없이	-11.0655
li	-11.0656
▁지역으로	-11.0657
▁신앙	-11.0658
▁김현수	-11.066
곳을	-11.0662
라면서	-11.0663
복을	-11.0664
▁행진	-11.0666
▁기관이	-11.0666
▁수준인	-11.0667
전망	-11.0669
미는	-11.0669
▁배송	-11.0671
▁비례대표	-11.0672
▁국민에게	-11.0674
▁가족과	-11.0675
▁드러낸	-11.0675
▁아닐까	-11.0676
▁찌	-11.0679
▁연평균	-11.0679
▁사회복지	-11.068
▁가담	-11.0681
▁치러	-11.0681
▁준비한	-11.0682
▁반영한	-11.0684
▁와중에	-11.0684
▁의제	-11.0685
▁차장	-11.0685
▁멤버들	-11.0686
▁부드러운	-11.0686
▁이수	-11.0687
▁98	-11.0688
▁한동안	-11.0689
발을	-11.0689
▁예산안	-11.069
▁나라를	-11.069
▁터진	-11.0692
▁전당대회	-11.0693
▁학생들	-11.0694
▁예상됩니다	-11.0695
지인	-11.0695
▁지난해보다	-11.0699
정책을	-11.0699
▁달라지	-11.0703
▁바른미래당	-11.0703
▁펼쳤	-11.0703
▁아니었	-11.0704
시와	-11.0705
▁할아버지	-11.0705
▁안으로	-11.0708
▁구멍	-11.0708
▁같다고	-11.0709
만큼은	-11.0709
▁안정을	-11.0712
▁경우에도	-11.0713
▁문제점을	-11.0713
원이다	-11.0717
▁국민을	-11.0718
든지	-11.0722
협약	-11.0723
▁위주의	-11.0725
▁질주	-11.0728
리와	-11.0728
져서	-11.0729
▁등산	-11.0729
▁냉장고	-11.073
▁그레이	-11.0733
▁부진한	-11.0736
▁알렸다	-11.0736
렵	-11.0737
▁안보리	-11.0737
교육을	-11.0742
▁실업	-11.0747
▁원격	-11.0747
▁존슨	-11.0747
▁효율성	-11.0747
▁쌍용차	-11.0748
대우	-11.0748
▁심정	-11.0749
▁담당자	-11.0755
▁국가가	-11.0757
ES	-11.0757
CEO	-11.0758
▁용기	-11.0761
▁협력사	-11.0761
▁합리적인	-11.0761
▁생각할	-11.0762
이에요	-11.0763
▁애플은	-11.0763
청소년	-11.0764
▁신축	-11.0764
ap	-11.0764
▁후임	-11.0766
▁특혜	-11.0766
▁지원해	-11.0768
스톤	-11.0769
▁이통사	-11.0769
▁피부를	-11.077
▁접어들	-11.0771
▁박종	-11.0773
켈	-11.0773
BC	-11.0774
▁배후	-11.0777
비로	-11.0778
작품	-11.078
▁걸었다	-11.078
▁비슷하다	-11.0781
▁일본에	-11.0782
내가	-11.0784
▁뛰어나	-11.0784
▁걸친	-11.0787
▁다음과	-11.0788
▁쏟	-11.0789
▁교수의	-11.0792
▁들어온	-11.0793
▁올라오	-11.0793
▁그러자	-11.0794
▁누릴	-11.0794
▁경제학	-11.0796
▁않았을	-11.0797
▁빨	-11.0797
▁홈페이지에	-11.0797
▁부위원장	-11.0797
▁노트	-11.0797
▁펼치는	-11.0798
운전	-11.0799
강전	-11.0799
▁St	-11.0802
▁터져	-11.0802
▁페널티킥	-11.0803
만명이	-11.0804
▁속으로	-11.0805
▁즐거운	-11.0806
▁도모	-11.0806
인천	-11.0807
▁연비	-11.0808
▁커졌다	-11.0809
▁지난해부터	-11.0809
▁견해	-11.0809
▁충실	-11.081
▁의하면	-11.081
▁술을	-11.0811
▁내준	-11.0812
▁팬들	-11.0815
▁앞장서	-11.0815
▁김무성	-11.0816
촉	-11.0817
▁속에서도	-11.0818
공업	-11.0819
▁원화	-11.0822
▁유망주	-11.0825
▁대조	-11.0825
he	-11.0827
집행	-11.0828
▁크리스마스	-11.083
▁좌석	-11.0831
▁추진해	-11.0832
▁남측	-11.0833
▁선언했다	-11.0833
▁안정적으로	-11.0835
루를	-11.0836
▁듣는	-11.0836
▁보여줄	-11.0837
▁비서관	-11.0838
▁부총리	-11.084
▁올해도	-11.0841
팬들	-11.0842
DB	-11.0845
트의	-11.0848
▁점심	-11.0848
금속	-11.0848
▁업계에서	-11.0854
▁잔류	-11.0856
▁보낼	-11.0856
▁시위대	-11.0857
▁흘리	-11.086
▁일관	-11.0862
더라고요	-11.0864
▁발레	-11.0865
▁차례로	-11.0865
예정	-11.0865
▁노래를	-11.0866
스토어	-11.0867
▁선수다	-11.0868
다음	-11.087
청사	-11.0871
▁긍정적으로	-11.0873
▁조합원	-11.0874
▁막고	-11.0874
▁프로세서	-11.0874
▁박성	-11.0877
▁애플의	-11.0879
▁승자	-11.0879
▁숨진	-11.0881
▁호응을	-11.0882
▁협박	-11.0882
▁내놓고	-11.0883
▁군산	-11.0885
▁문명	-11.0885
▁개발사	-11.0885
▁반해	-11.0887
▁해결을	-11.0888
▁97	-11.0888
▁솔루션을	-11.0889
▁맑은	-11.0889
▁학생들은	-11.089
셜	-11.0891
▁추후	-11.0892
▁강화할	-11.0896
▁연예인	-11.0896
▁자격을	-11.0897
지역에서	-11.0897
sh	-11.0897
변화	-11.0899
▁파문	-11.09
▁하나님의	-11.09
▁주민들	-11.09
잡이	-11.09
▁민주당의	-11.09
우가	-11.09
▁깔	-11.0902
▁시설을	-11.0902
탱	-11.0903
학부	-11.0906
▁증정	-11.0906
▁암살	-11.0906
▁기록하는	-11.0907
금융지주	-11.0909
점차	-11.0909
세트를	-11.091
▁군은	-11.091
▁물건을	-11.0913
▁시야	-11.0913
▁해결하기	-11.0914
▁선거에서	-11.0914
▁적용할	-11.0914
▁위원회	-11.0916
▁PS	-11.0917
▁근본적인	-11.0919
▁가속	-11.092
▁예상하고	-11.0921
▁신선	-11.0922
▁다양하게	-11.0925
▁혈관	-11.0927
그라	-11.0928
▁확보하고	-11.0928
노트	-11.0929
회전	-11.0929
▁확보했다	-11.0936
발표	-11.0936
▁중소형	-11.0938
▁하반기에	-11.0938
▁내리고	-11.094
▁hp	-11.0941
▁변호인	-11.0941
화한	-11.0943
▁녹음	-11.0943
▁된다면	-11.0944
▁역습	-11.0946
▁소지	-11.0947
▁음반	-11.0947
▁던졌다	-11.0947
▁순환	-11.0948
▁있나	-11.0952
▁...	-11.0959
▁빠	-11.0959
▁프랜차이즈	-11.0961
▁대피	-11.0962
여름	-11.0963
▁올라온	-11.0965
▁다하겠다	-11.0966
어진	-11.0967
▁스파	-11.0968
CB	-11.0968
식은	-11.0969
▁국회의장	-11.0971
▁헌신	-11.0973
▁석방	-11.0973
▁인식이	-11.0973
▁선보이며	-11.0975
▁날카로운	-11.0976
▁기능성	-11.0976
▁스피	-11.0977
▁HP	-11.0977
ell	-11.0979
▁만성	-11.098
▁재차	-11.0981
▁둘러	-11.0982
강화	-11.0983
으므로	-11.0984
▁형상	-11.0984
▁이루어진	-11.0985
소비	-11.0985
▁하원	-11.0985
▁감정을	-11.0986
▁현지에서	-11.0988
▁정부에서	-11.0988
▁한계를	-11.099
▁크루즈	-11.0991
▁샌	-11.0991
공개	-11.0993
▁퇴직	-11.0994
사업에	-11.0996
자치	-11.0997
링크	-11.0997
▁직원들이	-11.0997
▁취약	-11.0998
▁대역	-11.0999
▁전적	-11.1
▁증가하는	-11.1
▁핸드	-11.1
▁건축물	-11.1
▁방송사	-11.1001
DS	-11.1002
▁In	-11.1003
▁노하우	-11.1006
▁계승	-11.1008
▁링크	-11.1008
호기	-11.101
▁공정위	-11.101
로봇	-11.1011
▁가르치	-11.1012
집을	-11.1014
▁학계	-11.1014
▁제기한	-11.1015
▁몽골	-11.1016
▁한국시리즈	-11.102
GM	-11.1022
▁차질	-11.1023
▁개관	-11.1023
▁규정을	-11.1024
▁이루고	-11.1024
(29	-11.1025
▁물이	-11.1025
▁실장	-11.1026
▁성격이	-11.1027
▁진행해	-11.1027
▁사회에	-11.1027
스틱	-11.1028
▁데는	-11.1029
▁못했고	-11.1029
▁장거리	-11.103
▁최적의	-11.103
▁픽	-11.103
▁육상	-11.103
▁빨라	-11.1031
▁오버	-11.1031
▁분석된다	-11.1031
▁모래	-11.1033
▁내년부터	-11.1034
▁폴리	-11.1034
빌딩	-11.1038
▁각오	-11.1038
▁79	-11.1038
▁시점에	-11.1039
▁전제	-11.104
껏	-11.1041
떡	-11.1044
▁박찬호	-11.1047
▁피부에	-11.1049
통화	-11.1052
▁위장	-11.1052
▁미친	-11.1054
▁농산물	-11.1059
▁후에도	-11.1059
▁비결	-11.106
▁후반기	-11.106
▁이병	-11.1061
▁제기했다	-11.1064
▁아군	-11.1065
▁소리가	-11.1068
▁장기적으로	-11.1068
▁주목받	-11.1071
카와	-11.1071
▁열풍	-11.1073
▁뚜렷한	-11.1074
▁봤	-11.1074
▁제보	-11.1077
라서	-11.1078
롯데	-11.1079
오프	-11.108
즈의	-11.1082
군과	-11.1082
▁실시하고	-11.1082
▁자세를	-11.1084
▁하위	-11.1085
▁움직이	-11.1085
▁해보	-11.1086
▁문제도	-11.109
▁언론사	-11.1091
지대	-11.1091
콩	-11.1094
art	-11.1096
▁이번에도	-11.1097
▁지나가	-11.1101
▁대상은	-11.1102
▁들어올	-11.1103
관절	-11.1105
▁선행	-11.1105
▁생산량	-11.1106
▁컨소시엄	-11.1111
▁남미	-11.1111
▁풍부	-11.1111
▁동아	-11.1115
▁국장	-11.1116
▁판단을	-11.1116
▁헬기	-11.1118
▁독자들	-11.1118
ag	-11.1119
역에서	-11.1121
▁오사카	-11.1121
이었는데	-11.1124
▁당연한	-11.1125
▁브라	-11.1127
▁설치해	-11.1129
▁노리는	-11.1129
▁트랙	-11.1129
싸움	-11.113
▁지원이	-11.1131
증후군	-11.1132
▁리스트	-11.1133
쇠	-11.1134
▁PGA	-11.1134
▁가속화	-11.1135
▁확보할	-11.1136
하러	-11.1137
▁소문	-11.1138
(24	-11.1138
까지도	-11.1138
▁축구를	-11.1139
▁지급한다	-11.1143
▁기대할	-11.1144
▁중복	-11.1144
년차	-11.1144
▁마련할	-11.1144
▁김대	-11.1145
화에	-11.1147
▁이뤄지고	-11.1149
▁배틀	-11.115
▁여지가	-11.115
▁간사	-11.1151
▁사운드	-11.1152
▁내부에서	-11.1153
▁렌즈	-11.1154
마력	-11.1154
▁딴	-11.1155
▁넣는	-11.1156
자에	-11.1156
▁후보와	-11.1157
만명을	-11.1158
▁OS	-11.1162
됐으나	-11.1165
▁열려	-11.1165
▁선정해	-11.1166
되게	-11.1167
선은	-11.1168
▁경쟁사	-11.1168
▁반영해	-11.1169
▁기여할	-11.1169
▁대선후보	-11.1171
▁손학규	-11.1172
▁살아가는	-11.1173
박람회	-11.1174
사이	-11.1176
▁민간인	-11.1176
▁미래부	-11.1177
▁중국을	-11.1177
▁박태환	-11.1177
▁서울과	-11.1179
협회는	-11.118
▁장학금	-11.1181
▁쉴	-11.1181
연전	-11.1183
▁회원들	-11.1183
▁책임자	-11.1183
ive	-11.1184
▁81	-11.1186
▁극단	-11.1186
▁87	-11.1186
▁업체들이	-11.119
▁이어져	-11.1191
▁배상	-11.1191
ho	-11.1195
▁직원이	-11.1199
▁기대가	-11.12
년여	-11.12
관왕	-11.1201
▁뛰고	-11.1206
▁양식	-11.1207
∼1	-11.1208
공정	-11.121
오스	-11.1211
▁높다는	-11.1211
다보니	-11.1212
▁기운	-11.1216
▁신약	-11.1217
▁증가할	-11.1218
▁때에는	-11.1218
당시	-11.1219
▁유물	-11.122
▁분이	-11.1221
▁폭로	-11.1224
▁장점을	-11.1226
▁보육	-11.1227
▁아이디어를	-11.1228
▁선착순	-11.1228
▁차종	-11.1229
이어	-11.1232
▁그친	-11.1233
▁그렇기	-11.1234
▁효과적인	-11.1236
▁행태	-11.1236
▁낙찰	-11.1237
▁오직	-11.1239
▁장군	-11.124
기술을	-11.1241
미술관	-11.1243
▁의원도	-11.1244
▁장기간	-11.1244
▁160	-11.1244
▁학문	-11.1246
▁82	-11.1246
샘	-11.1246
주일	-11.1247
▁금리를	-11.1247
▁제안한	-11.1248
▁기량	-11.1249
▁여신	-11.1249
▁전년대비	-11.1252
▁챌린지	-11.1253
▁증진	-11.1255
▁프레임	-11.1255
하시는	-11.1256
▁8000	-11.1258
스러워	-11.1258
▁채소	-11.1261
온라인	-11.1264
포스	-11.1264
통제	-11.1265
템	-11.1267
▁않았다는	-11.1269
▁전체적인	-11.1269
▁밴	-11.1271
▁것들이	-11.1272
▁이뤄진다	-11.1274
타는	-11.1274
▁여성은	-11.1274
▁리바운드	-11.1278
▁MP	-11.1279
▁매력을	-11.1279
▁책의	-11.1279
▁옛날	-11.1279
▁벤츠	-11.1279
▁노력하고	-11.128
▁변형	-11.1281
▁출루	-11.1282
▁줄이기	-11.1283
▁불신	-11.1283
▁여러가지	-11.1283
▁부분에서	-11.1284
▁소개한다	-11.1284
▁발생한다	-11.1285
▁받았던	-11.1286
▁모은	-11.1287
▁드라이버	-11.1287
▁오래된	-11.1288
ia	-11.1289
▁후보들	-11.1289
넘	-11.1289
▁마이너스	-11.129
글로벌	-11.129
▁소외	-11.129
▁청장	-11.1292
▁드래프트	-11.1294
▁등장했다	-11.1297
▁당해	-11.1298
▁나타내는	-11.1299
선의	-11.13
▁4%	-11.13
명씩	-11.13
▁선두타자	-11.1301
▁위치해	-11.1301
▁고집	-11.1302
▁세우고	-11.1302
▁누구도	-11.1304
▁경찰청	-11.1306
▁대상을	-11.1307
▁갓	-11.1308
▁re	-11.1308
여대	-11.1308
▁자꾸	-11.1308
▁안경	-11.1309
기아차	-11.1309
▁읽고	-11.1315
▁후보자의	-11.1316
▁되었	-11.1316
관에서	-11.1316
▁부근	-11.1317
▁장중	-11.1318
▁트로피	-11.1318
▁만들겠다	-11.1318
▁결장	-11.1319
▁공간이	-11.1319
▁다루	-11.132
▁우호	-11.132
▁배가	-11.1322
▁매출액은	-11.1322
~19	-11.1323
▁관광객들	-11.1324
▁연애	-11.1325
▁나타내고	-11.1325
▁입시	-11.1325
▁젠	-11.1325
▁없지	-11.1325
▁잭	-11.1327
팀의	-11.1329
▁참가해	-11.1329
▁뛸	-11.133
▁생일	-11.1332
▁의료진	-11.1333
@	-11.1333
▁행진을	-11.1334
님이	-11.1335
▁유력한	-11.1335
▁것인데	-11.1336
▁전체회의	-11.1336
▁지속될	-11.1339
▁짝	-11.134
▁기각	-11.1341
▁연재	-11.1342
▁다채로운	-11.1343
TA	-11.1346
ER	-11.1348
싸	-11.1349
▁용의자	-11.1349
눌	-11.135
▁타석에서	-11.1351
▁호전	-11.1353
▁제이	-11.1353
▁무효	-11.1355
▁g	-11.136
▁발전에	-11.1361
▁조치가	-11.1365
켄	-11.1366
동아	-11.1366
▁피아노	-11.1367
뒤	-11.1367
국으로	-11.1368
닛	-11.1368
▁논평	-11.1368
울산	-11.1368
CA	-11.1372
▁칠레	-11.1372
▁위의	-11.1375
복합	-11.1381
▁묻자	-11.1381
▁3.3	-11.1381
겹	-11.1381
▁실수를	-11.1381
엇	-11.1384
▁실감	-11.139
▁마무리했다	-11.1391
▁삭감	-11.1393
ig	-11.1394
▁프리킥	-11.1398
▁설명회	-11.14
평균	-11.1402
▁내줬다	-11.1402
리의	-11.1405
▁불가피	-11.1407
▁아산	-11.1407
음식	-11.1408
부와	-11.1409
스토	-11.1409
▁선점	-11.141
▁거두며	-11.1412
툰	-11.1413
▁아래로	-11.1413
▁나이에	-11.1414
~6	-11.1414
홈	-11.1416
▁맡	-11.1416
녹	-11.1416
▁수송	-11.1417
▁잠재력	-11.142
▁보석	-11.142
▁원인으로	-11.1423
▁달라진	-11.1426
시키지	-11.1427
▁웹툰	-11.1427
▁나갔다	-11.1431
▁기업들은	-11.1431
▁합리적	-11.1433
재를	-11.1433
해지면서	-11.1434
▁등록금	-11.1434
▁박주영	-11.1435
▁빌딩	-11.1435
▁어른	-11.1436
▁때문이라고	-11.1436
▁적게	-11.1437
▁현상을	-11.1437
▁이것을	-11.1439
▁사용하면	-11.144
▁기록했고	-11.1441
업계에	-11.1441
▁변호사는	-11.1442
▁모르고	-11.1442
▁당첨	-11.1443
예방	-11.1443
벅	-11.1445
▁지난해에는	-11.1445
크스	-11.1446
▁또다른	-11.1446
▁시청자	-11.1447
▁치솟	-11.1449
▁느낀다	-11.1453
▁범위를	-11.1454
확대	-11.1454
▁라이프	-11.1455
▁확보를	-11.1455
·3	-11.1456
▁비난했다	-11.1457
▁공지	-11.1457
▁연초	-11.1458
▁뛰었다	-11.1458
▁재개발	-11.1459
▁응답자	-11.1462
▁국가안보	-11.1462
곳이	-11.1464
▁한참	-11.1464
▁공직자	-11.1466
▁메가	-11.1468
▁얻기	-11.1469
최고	-11.1471
▁불꽃	-11.1471
▁경위	-11.1472
▁고민을	-11.1472
▁고려하면	-11.1473
▁있겠다	-11.1474
▁꼴	-11.1474
▁모델이	-11.1474
▁와이	-11.1475
▁볼거리	-11.1475
▁태평양	-11.1475
▁맞추	-11.1478
▁지은	-11.1478
▁요구에	-11.1479
▁경제의	-11.1479
▁AFP	-11.148
▁휴스턴	-11.1482
▁재미있는	-11.1483
신탁	-11.1484
쳤고	-11.1485
▁포토	-11.1486
▁젊은이들	-11.1486
▁결성	-11.1488
▁화면을	-11.1488
▁후배	-11.1493
▁자리잡	-11.1498
▁흙	-11.1498
vi	-11.1499
▁들려	-11.1499
▁위해서다	-11.1501
▁상자	-11.1501
la	-11.1502
▁유세	-11.1503
▁측에서	-11.1504
공사는	-11.1504
▁스피커	-11.1506
▁애리조나	-11.1507
▁분석을	-11.151
▁문건	-11.1511
▁생각보다	-11.1511
▁주인공은	-11.1511
미가	-11.1513
▁버튼	-11.1513
▁수입차	-11.1515
규정	-11.1516
▁시작된다	-11.1516
워드	-11.1517
▁못했지만	-11.1517
▁주목할	-11.1518
▁오리온	-11.1518
▁비서	-11.1522
▁조언했다	-11.1523
▁빠르고	-11.1526
▁재계	-11.1526
▁일방적으로	-11.1527
▁인천시	-11.1527
▁진행되며	-11.1528
▁아무것도	-11.1528
▁만회	-11.1529
▁멜	-11.1529
▁일상생활	-11.153
▁내용에	-11.1531
▁사랑의	-11.1532
▁시민들의	-11.1532
인들은	-11.1534
▁않는다면	-11.1535
▁저도	-11.1536
너스	-11.1536
▁시작되는	-11.1538
▁가사	-11.1539
▁동서	-11.154
▁헐	-11.1541
▁작성한	-11.1541
▁IMF	-11.1542
심의	-11.1543
▁박병호	-11.1547
▁일어날	-11.1547
▁분할	-11.1549
▁랩	-11.155
등을	-11.1551
▁최전방	-11.1552
▁근본	-11.1553
▁상태에	-11.1559
▁책이	-11.1559
▁에코	-11.1561
만원이	-11.1561
앞	-11.1562
▁좀더	-11.1563
▁효율	-11.1565
▁이적료	-11.1566
정비	-11.1568
▁잠깐	-11.1568
자연	-11.1569
▁넘어섰다	-11.1569
▁발언은	-11.157
바다	-11.1571
체계를	-11.1572
▁많은데	-11.1573
▁환경에	-11.1574
▁음주	-11.1574
▁작용할	-11.1574
▁집값	-11.1575
▁받았고	-11.1575
TI	-11.1576
▁아일랜드	-11.1577
▁선보이고	-11.1578
▁미치	-11.1578
▁파이널	-11.1579
▁부추	-11.1582
▁부른다	-11.1584
경은	-11.1584
▁의미다	-11.1585
」	-11.1586
짱	-11.1586
▁해운대	-11.159
▁확정된	-11.1592
▁본부	-11.1594
▁상의	-11.1597
▁도착한	-11.1597
▁파장	-11.1599
▁메신저	-11.16
▁접근성	-11.1601
▁심어	-11.1601
▁의미로	-11.1601
▁전북은	-11.1602
구장	-11.1604
▁붙이	-11.1604
▁박차를	-11.1604
▁성숙	-11.1606
우리는	-11.1606
▁그럼	-11.1607
▁고려할	-11.1608
▁많았고	-11.161
▁금연	-11.1611
▁선거구	-11.1613
EX	-11.1613
사단	-11.1615
▁인력을	-11.1615
▁길드	-11.1615
▁전망을	-11.1616
▁89	-11.1616
구의	-11.1617
▁조건으로	-11.1617
▁기록할	-11.1619
듀	-11.1619
▁연결하는	-11.1621
▁소금	-11.1621
나요	-11.1621
▁중형	-11.1623
▁금요일	-11.1625
▁작업에	-11.1626
SP	-11.1627
▁코어	-11.1629
▁의견도	-11.1632
▁팀장은	-11.1632
▁늘리	-11.1634
로드	-11.1636
▁인선	-11.1637
▁켄	-11.1637
▁필요로	-11.1638
▁버려	-11.164
둬	-11.164
▁짓는	-11.1641
건축	-11.1642
코리아는	-11.1642
▁정해진	-11.1643
변경	-11.1644
홈쇼핑	-11.1644
▁에릭	-11.1645
▁편하게	-11.1647
▁덴마크	-11.1647
▁베를린	-11.1647
유산	-11.1648
수출	-11.1651
급여	-11.1651
▁발목을	-11.1652
▁입었다	-11.1652
▁봤을	-11.1654
선발	-11.1655
▁사면	-11.1655
▁빼앗	-11.1656
▁답변을	-11.1656
▁엔터테인먼트	-11.1656
▁풀이	-11.1658
▁긴장감	-11.1658
▁도박	-11.1659
▁개발하고	-11.1659
팽	-11.1661
▁관리하는	-11.1661
▁뷰티	-11.1663
▁요원	-11.1664
▁선수와	-11.1664
▁설립된	-11.1665
▁목에	-11.1666
▁스킨	-11.1668
달러를	-11.167
▁응시	-11.1671
▁MMORPG	-11.1672
▁겪었다	-11.1675
▁단위로	-11.1675
▁위력	-11.1676
▁작품들	-11.1677
▁엘리	-11.1677
▁상원	-11.168
▁7000	-11.1683
▁중심에	-11.1683
룰	-11.1683
즘	-11.1684
지원센터	-11.1686
카페	-11.1686
▁독재	-11.1686
×	-11.1687
▁국토교통부	-11.1687
유지	-11.169
▁86	-11.1691
우드	-11.1691
▁배우자	-11.1691
분부터	-11.1692
했어요	-11.1692
▁성공률	-11.1695
▁인천공항	-11.1695
▁주당	-11.1695
만명의	-11.1697
▁질서	-11.1698
▁영구	-11.1698
▁오스트리아	-11.1698
▁호수	-11.1698
▁나쁘지	-11.1699
현이	-11.1701
▁것임을	-11.1703
▁정동영	-11.1704
▁노동당	-11.1704
▁이뤄지는	-11.1706
▁사용자들	-11.1706
길이	-11.1709
▁근로	-11.1711
▁목격	-11.1712
▁데뷔전	-11.1714
층의	-11.1714
▁사고로	-11.1714
▁엔화	-11.1715
▁유권자	-11.1715
실에	-11.1716
▁고시	-11.1716
▁없다면	-11.1717
▁투명	-11.1717
▁물었다	-11.1718
핸	-11.1718
중에	-11.1719
ment	-11.1719
▁차량이	-11.172
▁큐	-11.172
▁오르고	-11.172
▁서면	-11.1721
▁싶다는	-11.1723
▁관점	-11.1723
▁실어	-11.1724
▁저소득층	-11.1727
▁올해로	-11.1728
▁유망	-11.1728
▁개정안을	-11.173
녕	-11.1732
▁효과는	-11.1732
▁설명을	-11.1735
민주당	-11.1737
▁해결책	-11.1737
▁기간을	-11.1741
▁치러진	-11.1742
▁지형	-11.1742
▁하시	-11.1743
▁사물	-11.1744
▁화상	-11.1745
▁규모다	-11.1745
반도체	-11.1747
▁붐	-11.1748
▁기쁨을	-11.1748
▁웃었다	-11.1749
me	-11.175
▁피츠버그	-11.1752
▁웅	-11.1753
▁만일	-11.1753
MD	-11.1754
▁캠핑	-11.1755
움을	-11.1755
▁주방	-11.1755
▁무제한	-11.1756
▁확실	-11.1756
떨	-11.1757
▁프로그램은	-11.1758
▁전략이다	-11.1763
▁더욱이	-11.1766
▁캘리포니아	-11.1766
▁기쁨	-11.1767
▁군사적	-11.1767
▁곰	-11.1767
▁심리적	-11.1768
▁머물렀다	-11.1768
▁한중	-11.1769
▁현직	-11.1769
구매	-11.1772
▁대리점	-11.1774
▁써야	-11.1775
▁│	-11.1775
특구	-11.1775
냉	-11.1776
▁생산성	-11.1777
▁GDP	-11.1777
▁부러	-11.1778
▁놓치지	-11.178
요소	-11.1782
▁호재	-11.1783
▁극심한	-11.1784
호텔에서	-11.1785
▁황사	-11.1786
▁무력	-11.1788
▁높지	-11.1791
▁원내	-11.1793
▁보시	-11.1793
▁격차를	-11.1793
▁최고위원은	-11.1793
▁결승에서	-11.1795
▁보너스	-11.1795
▁갤럭시노트	-11.1795
왼쪽	-11.1796
▁법을	-11.1798
깨	-11.1798
▁생산하는	-11.1799
▁해준다	-11.18
▁부리	-11.18
계에	-11.1801
▁소비자들이	-11.1801
lo	-11.1801
▁편리	-11.1802
▁서해안	-11.1803
▁확립	-11.1805
▁나아	-11.1806
AM	-11.1807
▁히어로즈	-11.1807
▁민주노동당	-11.1811
▁전산	-11.1812
▁독일의	-11.1812
홍보	-11.1813
▁해리	-11.1813
▁첫번째	-11.1815
▁쿨	-11.1816
▁덕에	-11.1816
▁기상청은	-11.1817
시장이	-11.1818
터미널	-11.1818
하길	-11.1818
▁감기	-11.1818
시켜야	-11.1819
▁뚜렷	-11.1819
▁남해	-11.1819
한국시각	-11.182
2.5%	-11.182
▁박정희	-11.182
▁회장과	-11.1821
▁오피스	-11.1821
▁클리블랜드	-11.1822
▁잦은	-11.1822
▁띄는	-11.1822
▁시장점유율	-11.1823
파이	-11.1824
▁여부는	-11.1826
▁추정되는	-11.1826
력으로	-11.1827
▁민주통합당	-11.1827
▁기준이	-11.183
▁배구	-11.183
▁요인으로	-11.1831
▁강호	-11.1831
형으로	-11.1832
▁잃고	-11.1836
▁와이파이	-11.1836
PM	-11.1836
크로	-11.1837
▁다짐	-11.1837
▁권유	-11.1838
▁나라가	-11.184
▁흔적	-11.1842
ab	-11.1847
▁강조하고	-11.1848
씬	-11.1849
▁미드	-11.185
모토	-11.1851
▁정해	-11.1852
▁다룬	-11.1852
▁추출	-11.1852
▁속속	-11.1853
ect	-11.1853
▁들을	-11.1853
▁성실	-11.1853
▁걸로	-11.1854
원인	-11.1854
층이	-11.1854
▁자금이	-11.1854
▁들면	-11.1855
▁내정	-11.1856
▁NH	-11.1856
▁늘리는	-11.1859
▁패했다	-11.1859
슐	-11.186
▁겉	-11.1861
▁박재	-11.1863
▁억울	-11.1863
▁스타일을	-11.1864
▁환호	-11.1864
▁권한을	-11.1865
▁목록	-11.1865
▁가까워	-11.1865
갔	-11.1866
처분	-11.1866
▁잡히	-11.1867
▁기술적	-11.1869
▁의외로	-11.1869
▁마이크로소프트	-11.1869
▁일체	-11.1869
▁메일	-11.187
▁자신과	-11.187
▁전문의	-11.187
▁파산	-11.1871
▁광저우	-11.1872
▁꼬리	-11.1873
~3	-11.1873
▁선방	-11.1873
▁전체가	-11.1875
▁겪은	-11.1876
▁전에는	-11.1876
▁전국적으로	-11.1877
▁원고	-11.1878
겔	-11.1879
▁원인은	-11.1881
▁뒤에는	-11.1881
시키며	-11.1883
▁산업의	-11.1885
▁컵	-11.1886
▁96	-11.189
▁맺은	-11.189
였기	-11.1891
자고	-11.1892
자격	-11.1892
▁흔	-11.1893
▁박람회	-11.1893
▁우승컵	-11.1894
▁내기	-11.1895
진흥원	-11.1896
▁최대의	-11.1898
▁규정하고	-11.1898
▁캠	-11.1901
▁국정감사	-11.1901
▁확인해	-11.1901
▁많을	-11.1903
▁간접	-11.1904
화에서	-11.1904
톰	-11.1904
▁이어갈	-11.1904
▁불공정	-11.1906
▁체류	-11.1907
▁이동국	-11.1909
었어요	-11.191
판이	-11.1911
컴퍼니	-11.1912
▁떠올리	-11.1912
▁미래에셋	-11.1915
▁났	-11.1915
▁정관용	-11.1915
▁크로	-11.1916
카운트	-11.1918
▁버프	-11.1919
▁화두	-11.192
▁대사관	-11.1921
▁커뮤니케이션	-11.1922
▁뛰어들	-11.1922
▁스티븐	-11.1923
무대	-11.1923
▁구리	-11.1924
이거나	-11.1924
▁음원	-11.1925
▁끓	-11.1926
▁설명하고	-11.1926
▁과목	-11.1927
▁붓	-11.1927
▁두려움	-11.1928
발전소	-11.1928
▁것이기	-11.1929
▁인간이	-11.193
▁찬스를	-11.1935
▁버리	-11.1935
▁작품이다	-11.1935
▁취하	-11.1936
▁컷	-11.1939
마당	-11.194
▁나름대로	-11.1941
▁경찰의	-11.1942
▁출동	-11.1943
루타를	-11.1944
▁연기를	-11.1944
▁새누리당은	-11.1944
▁주민들은	-11.1946
▁이벤트도	-11.1946
숲	-11.1946
오리	-11.1947
▁크림	-11.1948
▁불안한	-11.1948
▁아픈	-11.1949
▁회장을	-11.195
쌍	-11.1951
▁전쟁을	-11.1953
트와	-11.1954
▁전반전	-11.1955
▁전지훈련	-11.1956
▁주니어	-11.1957
▁승인을	-11.1958
과정을	-11.1958
▁헌법재판소	-11.1961
▁모범	-11.1961
▁OLED	-11.1961
▁앱스토어	-11.1964
사업부	-11.1965
가면서	-11.1966
주와	-11.1967
▁참여하고	-11.1967
▁클로	-11.1967
▁발표를	-11.1968
▁비하면	-11.1971
스트로	-11.1974
▁1200	-11.1975
▁역사의	-11.1976
▁받아들이	-11.1976
▁쪽에	-11.1978
▁유인	-11.1981
덤	-11.1983
▁중원	-11.1983
▁따냈다	-11.1986
되었던	-11.1987
▁경영권	-11.1987
▁투표율	-11.1989
펙	-11.1989
그레	-11.1989
▁개인전	-11.1991
▁쳤다	-11.1991
▁넘지	-11.1992
▁파이터	-11.1995
▁실체	-11.1997
▁땅을	-11.1997
▁곳도	-11.1997
세이브	-11.1997
▁들어선	-11.1997
▁한데	-11.1997
목표	-11.2004
위까지	-11.2008
원들이	-11.2009
▁버리고	-11.2009
▁뜻이	-11.201
▁전국에	-11.201
숍	-11.201
때문에	-11.2011
▁넓어	-11.2011
▁팝	-11.2013
▁있겠지만	-11.2013
▁생각이다	-11.2013
▁없는데	-11.2014
▁하다가	-11.2015
▁관할	-11.2015
▁실정이다	-11.2015
▁쓰이는	-11.2016
▁대법관	-11.2016
▁우회	-11.2021
▁중기	-11.2021
마르	-11.2021
▁모금	-11.2022
▁적다	-11.2022
▁테스트를	-11.2023
▁인수위	-11.2024
▁우울증	-11.2025
▁생겼	-11.2025
▁교역	-11.2026
으론	-11.2026
▁봉사활동	-11.2028
▁UEFA	-11.2028
▁같았다	-11.2029
▁전문가들	-11.2029
▁애플이	-11.203
▁삼성이	-11.203
렌즈	-11.2032
셨다	-11.2032
금이	-11.2033
▁게이머들	-11.2033
방안을	-11.2033
요원	-11.2034
▁경고했다	-11.2035
▁우승에	-11.2037
▁엔트리	-11.2037
~5	-11.2037
▁걸렸다	-11.2037
▁인센티브	-11.2038
보상	-11.2038
▁다해	-11.204
▁예전에	-11.204
▁조례	-11.204
▁네티즌	-11.2041
구간	-11.2043
▁기능도	-11.2044
섹	-11.2045
▁언니	-11.2047
▁테라	-11.2048
거래일	-11.2049
▁기법	-11.2049
▁고객들이	-11.2049
▁이용자가	-11.205
▁부터	-11.205
▁월급	-11.2051
IB	-11.2051
▁몰고	-11.2052
▁선정했다	-11.2052
▁실패한	-11.2055
▁타인	-11.2055
▁총선에서	-11.2055
안타를	-11.2057
야마	-11.2057
홀에서	-11.2059
▁줄곧	-11.2061
▁펼쳐진	-11.2062
▁안전하게	-11.2064
▁허브	-11.2064
(33	-11.2064
겠느냐	-11.2064
▁신사	-11.2068
▁혜	-11.2068
열차	-11.2069
▁자택	-11.2069
▁태권도	-11.2071
▁로버트	-11.2073
▁이용하면	-11.2074
▁아키	-11.2076
▁생중계	-11.2077
▁일어나는	-11.2078
▁다루는	-11.2078
▁올라섰다	-11.208
▁주어진다	-11.2081
▁싶다고	-11.2082
▁대개	-11.2084
▁전국의	-11.2085
지난해	-11.2086
▁바람을	-11.2086
▁전망입니다	-11.209
▁불편한	-11.209
▁경제를	-11.209
▁신기술	-11.2091
▁공감대	-11.2092
▁업체는	-11.2094
유치	-11.2095
매체	-11.2096
▁되겠다	-11.2096
▁법안을	-11.2097
패드	-11.2097
▁지니고	-11.2098
▁94	-11.2098
▁비판이	-11.2099
▁여인	-11.2099
▁만찬	-11.2104
▁위안	-11.2105
▁무게를	-11.2106
▁폭염	-11.2106
▁비준	-11.2108
경북	-11.2108
주에	-11.2109
▁초콜릿	-11.211
▁받으면	-11.2111
▁필요성	-11.2112
▁얼굴이	-11.2113
▁거다	-11.2113
▁외국인이	-11.2113
▁드러난	-11.2114
▁가문	-11.2115
▁과거에	-11.2116
곳의	-11.2117
▁존재감	-11.2117
▁좋았	-11.2118
타가	-11.212
▁플랫폼을	-11.212
▁끝나는	-11.2121
▁승리의	-11.2123
▁배제할	-11.2125
마저도	-11.2126
▁행사장	-11.2126
▁종사자	-11.2127
▁끝날	-11.2127
▁사회를	-11.2128
▁넣	-11.2129
립니다	-11.213
▁화해	-11.2131
▁나눈	-11.2132
▁시가	-11.2133
▁손실을	-11.2133
▁봅니다	-11.2137
▁관광지	-11.2139
▁급속	-11.2141
▁레전드	-11.2141
▁임시국회	-11.2141
▁업적	-11.2142
점포	-11.2142
▁마라	-11.2142
▁사형	-11.2144
▁연이어	-11.2145
▁구입할	-11.2146
▁돌아와	-11.2146
▁파키스탄	-11.2147
▁출판사	-11.2147
2015	-11.2147
▁일명	-11.2147
▁노리고	-11.2149
▁똑같이	-11.2149
해준	-11.215
▁보도자료	-11.2151
▁의원들의	-11.2153
bp	-11.2153
▁정권의	-11.2154
▁탐사	-11.2155
▁진출했다	-11.2155
▁벌어지는	-11.2156
▁마운드에	-11.2156
▁날짜	-11.2156
▁완성도	-11.2157
▁대항	-11.2158
▁아끼지	-11.2158
▁게이머	-11.2158
자재	-11.2158
▁대구시	-11.216
▁대표로	-11.2161
▁길어	-11.2161
▁고성능	-11.2165
▁체제를	-11.2166
▁떠났다	-11.2167
▁중요성	-11.2168
▁헤딩	-11.2168
▁무죄	-11.2169
▁수상한	-11.217
피스	-11.217
▁김포	-11.217
라가	-11.2172
▁의무화	-11.2173
▁언론들	-11.2173
쿼	-11.2178
▁당뇨병	-11.218
▁보게	-11.218
▁다크	-11.2181
▁측면이	-11.2182
▁키우는	-11.2182
▁안팎의	-11.2183
▁도요타	-11.2183
per	-11.2185
리티	-11.2185
었기	-11.2187
▁시대가	-11.2187
▁내셔널리그	-11.2187
노스	-11.2188
톱	-11.2189
▁신동	-11.2191
▁비극	-11.2192
씻	-11.2194
▁전시장	-11.2195
▁함정	-11.2196
▁추세다	-11.2197
▁해당한다	-11.2199
▁인쇄	-11.2201
궈	-11.2203
분과	-11.2204
▁다를	-11.2204
▁정도였다	-11.2205
▁되돌아	-11.2206
▁걸리는	-11.2207
하겠지만	-11.2211
▁강조하는	-11.2211
▁블로킹	-11.2214
▁밖에도	-11.2214
▁밀란	-11.2214
앵	-11.2217
▁무승부	-11.222
▁합의한	-11.2221
▁이식	-11.2222
▁클릭	-11.2223
▁인물이	-11.2223
▁선물을	-11.2224
카메라	-11.2225
건이	-11.2226
▁셋째	-11.2231
▁차이는	-11.2232
미사일	-11.2233
딕	-11.2234
루타	-11.2238
▁다음에	-11.2239
▁서쪽	-11.224
▁산림	-11.2242
문제를	-11.2242
라이더	-11.2242
수영	-11.2243
▁적용된	-11.2244
CS	-11.2245
▁눈으로	-11.2245
실로	-11.2246
▁조종	-11.2246
▁단호	-11.2251
▁아프간	-11.2252
▁알려졌습니다	-11.2255
▁이하로	-11.2256
▁없음	-11.2256
▁대대적인	-11.2257
수당	-11.2257
쩍	-11.2259
▁행보를	-11.2259
▁공모전	-11.226
▁천재	-11.2262
▁흑인	-11.2263
▁350	-11.2265
▁결혼식	-11.2265
▁유산	-11.2267
▁청사	-11.2269
▁없었고	-11.2269
▁제공하기	-11.2273
▁내세운	-11.2273
진단	-11.2274
▁반환	-11.2276
▁먼지	-11.2277
▁동원해	-11.2278
▁완승	-11.2278
▁꾸며	-11.2278
▁끝나면	-11.2279
▁살리기	-11.2281
▁불황	-11.2282
강력히	-11.2283
▁실질적으로	-11.2284
슴	-11.2285
▁계획입니다	-11.2285
MP	-11.2287
디오	-11.2287
▁강조했습니다	-11.2288
▁불안정	-11.229
▁승리에	-11.229
▁박수	-11.229
▁골든	-11.2291
▁물에	-11.2292
끄러	-11.2292
리츠	-11.2293
강에서	-11.2294
법과	-11.2295
▁허용했다	-11.2297
▁내용으로	-11.2297
▁전임	-11.2298
▁획득할	-11.2298
▁충분하다	-11.2299
▁달성한	-11.23
주면	-11.23
▁세계의	-11.23
▁분야를	-11.2302
▁위생	-11.2302
OC	-11.2302
ac	-11.2305
▁두려워	-11.2307
▁새정치연합	-11.2307
▁기대감이	-11.2309
테러	-11.2311
였으나	-11.2312
높	-11.2313
냐고	-11.2315
▁애널리스트는	-11.2315
▁맞춤	-11.2315
▁되자	-11.2316
▁재선	-11.2318
팀장	-11.2319
▁의혹에	-11.2319
놈	-11.2319
▁다저스는	-11.2321
▁현실화	-11.2321
▁최정	-11.2323
산업단지	-11.2323
제와	-11.2324
▁낫다	-11.2324
▁해고	-11.2325
▁거래소	-11.2325
▁선발투수	-11.2327
▁타워	-11.2328
스틸	-11.2328
▁관련해서는	-11.2329
▁우정	-11.233
▁운영체제	-11.2333
▁캐주얼	-11.2336
ea	-11.2337
메르	-11.2337
▁기후변화	-11.2339
데스	-11.2339
▁주장이다	-11.2339
▁대표단	-11.234
됐는데	-11.234
▁여는	-11.2341
▁보이지만	-11.2341
▁전수	-11.2347
왔습니다	-11.2349
시오	-11.235
▁아이들을	-11.235
▁교차	-11.2351
푸드	-11.2351
▁경상	-11.2353
▁나이트	-11.2354
▁차가	-11.2359
초등학교	-11.236
문화재	-11.236
▁브레	-11.2361
▁밀집	-11.2363
▁알지	-11.2363
먼트	-11.2364
▁자체는	-11.2364
쥐	-11.2365
▁보좌관	-11.2365
▁결의안	-11.2365
교실	-11.2365
▁이사장은	-11.2366
em	-11.2366
▁생계	-11.2372
▁넘어선	-11.2372
▁여전	-11.2372
제도를	-11.2373
▁늘리고	-11.2376
▁흐름이	-11.2376
▁소비자가	-11.2377
▁스트레스를	-11.2377
▁이어서	-11.2377
▁당신의	-11.2378
▁렌	-11.238
▁따지	-11.2383
▁농도	-11.2384
▁BBC	-11.2384
▁나에게	-11.2385
▁AS	-11.2386
▁분위기는	-11.2388
▁혜택이	-11.2389
▁살아나	-11.2389
▁토끼	-11.239
파워	-11.239
▁밤에	-11.2391
▁여부가	-11.2391
▁임무를	-11.2394
▁전년보다	-11.2398
▁아티스트	-11.2399
▁컨퍼런스	-11.2401
▁미루	-11.2402
▁상시	-11.2402
▁높아질	-11.2404
▁그중	-11.2404
소가	-11.2404
▁1992	-11.2405
▁승차	-11.2405
프라	-11.2405
신경	-11.2405
공을	-11.2405
버그	-11.2407
▁것일까	-11.2407
벤처	-11.2408
주지	-11.2409
비행	-11.2409
▁바쁜	-11.2409
▁돕기	-11.241
권과	-11.2411
▁두께	-11.2411
전으로	-11.2411
▁부양	-11.2413
▁동계	-11.2414
부로	-11.2414
▁컨셉	-11.2414
▁여겨	-11.2414
▁연일	-11.2416
▁분석하고	-11.2416
▁기동	-11.2417
▁하나하나	-11.2418
크림	-11.242
▁있었을	-11.242
▁같은데	-11.2421
확인	-11.2421
▁사용했다	-11.2421
▁책임이	-11.2423
▁횡령	-11.2424
▁분명한	-11.2424
▁어쨌든	-11.2425
▁건강에	-11.2426
▁볼넷	-11.2426
▁대단히	-11.2427
▁총기	-11.2428
▁실장은	-11.2429
▁작가가	-11.2429
▁있었으나	-11.2429
▁이벤트는	-11.243
▁초등학생	-11.2431
▁종류의	-11.2431
력은	-11.2432
흔	-11.2434
▁타협	-11.2436
▁인생을	-11.2436
▁가이드라인	-11.2437
▁수사에	-11.2437
▁불과한	-11.2438
▁과감한	-11.2439
▁프로그램이	-11.2439
▁감독님	-11.2441
▁발송	-11.2441
제의	-11.2442
들었다	-11.2448
▁전분기	-11.2448
토리	-11.2451
▁Copyright	-11.2451
▁세련된	-11.2451
▁미술관	-11.2452
▁허락	-11.2452
▁칭	-11.2454
▁판결을	-11.2454
▁오일	-11.2454
▁지키기	-11.2456
▁다름없	-11.2456
▁리니지	-11.2457
▁확실하게	-11.2459
▁경남도	-11.2461
▁이루는	-11.2461
선수들	-11.2465
▁아직은	-11.2466
▁전용면적	-11.2469
없	-11.2469
▁게임으로	-11.2469
▁못하다	-11.2471
집단	-11.2472
ec	-11.2472
▁정상회담을	-11.2474
▁브레이크	-11.2474
▁선택을	-11.2475
▁곱	-11.2476
계좌	-11.2476
▁CNN	-11.2477
무를	-11.2477
▁관료	-11.2478
▁합의가	-11.2478
▁도입한	-11.2479
▁글로	-11.2479
▁음식점	-11.2479
▁나오면	-11.2479
자문	-11.2479
국회	-11.248
▁전승	-11.2481
▁기자간담회	-11.2482
탠	-11.2482
▁순이었다	-11.2483
▁일선	-11.2483
▁월요일	-11.2484
▁안방	-11.2485
하자고	-11.2487
▁축적	-11.2488
능력을	-11.2489
▁환경이	-11.2489
▁총재는	-11.2491
기까지	-11.2492
▁마련하고	-11.2493
멀	-11.2493
▁믿을	-11.2494
▁체력이	-11.2495
▁범인	-11.2495
▁나타내	-11.2495
마크	-11.2496
효과를	-11.2497
▁선언한	-11.2497
▁미얀마	-11.2497
요법	-11.2497
▁그곳	-11.2498
▁블록	-11.25
▁열리고	-11.25
▁외형	-11.2502
▁거래가	-11.2503
▁불행	-11.2505
ml	-11.2506
으니까	-11.2507
롭고	-11.2508
▁확정했다	-11.2509
시께	-11.2509
▁말하면	-11.2509
▁결정에	-11.251
▁사이즈	-11.251
▁바퀴	-11.2512
모드	-11.2512
▁판정을	-11.2512
단위	-11.2513
▁투자하는	-11.2514
▁한두	-11.2515
대화	-11.2515
▁후보자가	-11.2515
▁궁금	-11.2517
옹	-11.2518
▁질의	-11.2519
▁실태	-11.252
▁빈곤	-11.2521
2012	-11.2521
▁모델은	-11.2522
▁여섯	-11.2524
▁동영상을	-11.2524
▁도입을	-11.2525
하였으며	-11.2525
▁해임	-11.2525
▁댄스	-11.2526
▁이해관계	-11.2526
버릴	-11.2527
▁아이스	-11.2528
▁어울리는	-11.2529
▁지루	-11.253
ce	-11.2531
▁연계해	-11.2533
하늘	-11.2533
▁KTX	-11.2539
▁어릴	-11.2543
▁티켓을	-11.2546
▁중요하다고	-11.2548
지오	-11.2548
▁서비스에	-11.2549
▁전성기	-11.2549
랍	-11.255
▁시범경기	-11.2551
▁적용된다	-11.2551
▁일괄	-11.2551
▁92	-11.2551
▁연준	-11.2551
만원이다	-11.2552
기간이	-11.2554
조로	-11.2555
▁부상자	-11.2556
▁버티	-11.2556
▁홈에서	-11.2557
▁업데이트를	-11.2558
▁흉	-11.2559
▁정한	-11.2559
▁병원에서	-11.256
▁몰랐다	-11.2561
▁장타	-11.2562
이면서	-11.2562
▁일정이	-11.2563
권에서	-11.2564
▁결과로	-11.2564
▁쿠바	-11.2566
▁삼성전자와	-11.2566
▁모터	-11.2568
▁녹아	-11.2569
▁단연	-11.2571
캐피탈	-11.2571
▁부하	-11.2572
▁맑	-11.2572
▁이해하고	-11.2572
심이	-11.2573
▁더구나	-11.2573
저우	-11.2575
모를	-11.2575
▁티셔츠	-11.2575
▁위하여	-11.2576
▁발령	-11.2577
▁】	-11.2579
▁마라톤	-11.2581
▁성적은	-11.2581
▁발생해	-11.2582
▁결정이	-11.2582
라운드를	-11.2583
아동	-11.2583
▁지역사회	-11.2584
▁인턴	-11.2584
▁몰래	-11.2585
▁일으키	-11.2585
▁모멘텀	-11.2587
▁조직을	-11.2589
▁가격으로	-11.2593
기간을	-11.2593
▁탈퇴	-11.2595
▁대학원	-11.2595
대장	-11.2595
▁따르	-11.2596
▁권리를	-11.2597
▁온다	-11.2597
▁일일이	-11.2599
▁복지부	-11.2602
▁돌아왔다	-11.2603
▁찾아온	-11.2603
▁부분이다	-11.2605
▁가기	-11.2606
▁표현을	-11.2607
ET	-11.2608
▁잃어	-11.2608
▁취할	-11.2609
▁중간에	-11.2611
▁대부분은	-11.2613
▁답답	-11.2613
▁퍼트	-11.2613
▁용이	-11.2614
▁과잉	-11.2614
▁자료사진	-11.2615
▁아버지가	-11.2616
▁경찰관	-11.2621
▁군수	-11.2621
▁굿	-11.2622
▁때로는	-11.2625
(34	-11.2626
일자	-11.2626
▁격차	-11.2626
▁액수	-11.2626
▁일산	-11.2627
▁싫어	-11.2627
▁급감	-11.2627
▁카르	-11.2629
▁작년에	-11.2629
▁시간대	-11.2629
▁사령탑	-11.2631
▁넘긴	-11.2631
▁욕구	-11.2632
ue	-11.2632
▁하겠다는	-11.2632
▁안정적	-11.2634
▁적중	-11.2636
된다고	-11.2636
전형	-11.2636
군요	-11.2637
fe	-11.2637
▁가톨릭	-11.2637
▁작중	-11.2637
▁공수	-11.2637
두고	-11.2638
▁따져	-11.2639
▁상무는	-11.2639
▁평가전	-11.2639
이죠	-11.2641
▁마당	-11.2641
▁캐리	-11.2641
▁맘	-11.2641
▁사진제공	-11.2642
▁보충	-11.2643
▁전통적인	-11.2643
2018	-11.2645
▁요소를	-11.2646
▁학생들에게	-11.2646
▁360	-11.2646
▁서초구	-11.2647
▁환율은	-11.2647
▁떠나는	-11.2651
▁낚시	-11.2651
▁도청	-11.2652
▁싼	-11.2653
▁느낀	-11.2654
▁모스크바	-11.2654
깃	-11.2655
▁인물들	-11.2655
▁메리	-11.2656
▁출발한	-11.2656
▁바둑	-11.2658
RP	-11.2658
▁결과물	-11.2658
▁출생	-11.2659
▁여름철	-11.266
▁응급	-11.2662
대회에서	-11.2662
▁출시할	-11.2665
▁오르며	-11.2666
▁하노이	-11.2667
▁영역을	-11.2668
▁매장을	-11.2671
MO	-11.2673
▁농장	-11.2673
▁금융회사	-11.2675
▁일시	-11.2675
▁놓치	-11.2676
▁공급하는	-11.2676
▁고등	-11.2677
즈가	-11.2677
▁이현	-11.2678
회까지	-11.2678
PI	-11.2679
▁터뜨렸다	-11.2682
▁드라이브	-11.2683
뱅	-11.2684
▁상권	-11.2685
스타일	-11.2685
▁바탕	-11.2685
ight	-11.2685
KB	-11.2686
▁외환	-11.2687
▁진실을	-11.2688
▁7%	-11.2689
▁내정자	-11.2691
구도	-11.2692
▁중재	-11.2693
▁흐르	-11.2694
▁그들	-11.2695
▁경쟁률	-11.2695
▁브리	-11.2695
▁덱	-11.2696
▁누구보다	-11.2697
칼텍스	-11.2697
근무	-11.2699
릭스	-11.2701
▁마이크로	-11.2702
▁마케팅을	-11.2703
▁되었고	-11.2703
cc	-11.2704
▁무리뉴	-11.2705
했는데요	-11.2706
▁이영	-11.2708
주세요	-11.2708
▁말부터	-11.2708
▁먹이	-11.2709
ist	-11.2711
영이	-11.2711
▁들어서는	-11.2712
▁동쪽	-11.2713
▁신한	-11.2713
▁타깃	-11.2713
어는	-11.2713
인구	-11.2713
▁내세워	-11.2714
장인	-11.2714
▁박영	-11.2715
▁“‘	-11.2715
방울	-11.2716
▁콜롬비아	-11.2716
▁쫓아	-11.2717
▁받아들일	-11.272
▁아침에	-11.2722
표준	-11.2723
▁상세	-11.2723
▁실버	-11.2723
폭력	-11.2724
▁사우디	-11.2725
▁대여	-11.2726
▁먹으면	-11.2726
▁톤	-11.2727
기념	-11.2728
▁화려	-11.2729
▁초월	-11.273
▁하기도	-11.273
▁서울중앙지검	-11.2731
▁굽	-11.2731
▁환상	-11.2732
▁내놓을	-11.2733
선에	-11.2733
▁83	-11.2736
슛	-11.2736
▁만들어야	-11.2737
이었다고	-11.2737
썰	-11.2737
▁삼성과	-11.2737
▁깊	-11.2738
▁조현	-11.2738
손해보험	-11.274
▁연달아	-11.274
▁국무회의	-11.274
▁찬스	-11.2742
연구원은	-11.2744
▁투자자들	-11.2745
▁전투를	-11.2746
▁효율적으로	-11.2746
▁해명했다	-11.2747
▁안겨	-11.2748
▁전락	-11.2749
▁카트	-11.2749
▁등극	-11.275
농협	-11.275
제국	-11.2752
▁지급하는	-11.2752
▁출품	-11.2752
▁1960	-11.2753
시다	-11.2753
▁삼고	-11.2754
▁절망	-11.2754
▁다리를	-11.2755
판에	-11.2755
▁책임감	-11.2756
are	-11.2756
▁장갑	-11.2758
▁91	-11.2758
▁당기순이익	-11.2758
大	-11.2758
▁점유율을	-11.2761
▁유적	-11.2762
니는	-11.2763
▁쏘아	-11.2763
방문	-11.2763
▁창조경제	-11.2764
▁휠	-11.2764
▁히로	-11.2764
▁충주	-11.2765
지출	-11.2765
파리	-11.2766
▁이해를	-11.2768
▁행사에는	-11.2769
∼20	-11.2769
▁당연	-11.277
▁보상을	-11.2772
▁잘라	-11.2773
▁복제	-11.2775
설이	-11.2775
굳	-11.2776
▁오랜만에	-11.2777
▁김학	-11.2777
밴드	-11.2778
성분	-11.2779
▁아쉽다	-11.2782
▁아카데미	-11.2783
회관	-11.2785
FI	-11.2786
▁전형적인	-11.2786
▁능력치	-11.2787
▁욕망	-11.2788
▁랜	-11.2789
흘	-11.2789
to	-11.2793
▁속의	-11.2794
▁신비	-11.2794
▁우승팀	-11.2794
점수	-11.2797
▁기대했다	-11.2797
▁들어오는	-11.2797
▁화장	-11.28
▁자유투	-11.2801
병을	-11.2802
▁경우에	-11.2803
현지시각	-11.2803
▁데리고	-11.2803
▁관심과	-11.2803
케어	-11.2804
▁밖에서	-11.2805
섰	-11.2805
▁설립한	-11.2807
▁마비	-11.2808
여년	-11.2808
▁세계에	-11.2809
지점	-11.281
▁원자재	-11.2811
▁떠오른	-11.2812
ie	-11.2812
토론	-11.2813
▁자격증	-11.2813
▁여론이	-11.2814
연료	-11.2814
▁사업으로	-11.2814
연속	-11.2814
▁올랐고	-11.2814
스쿨	-11.2816
▁세균	-11.2817
▁중장기	-11.2817
▁거짓	-11.2818
▁로고	-11.282
시키려	-11.282
▁유소년	-11.2821
▁위헌	-11.2822
▁높아진	-11.2823
▁운영할	-11.2824
▁흥분	-11.2824
▁땅볼	-11.2825
▁프로세스	-11.2825
▁체질	-11.2826
one	-11.2827
카드를	-11.2827
▁예년	-11.2829
▁말아야	-11.2829
▁클레	-11.283
▁론칭	-11.283
▁93	-11.2831
▁목동	-11.2832
▁알리고	-11.2832
▁고려한	-11.2833
▁강정호	-11.2836
▁합법	-11.2836
▁지었다	-11.2837
▁최장	-11.2838
▁애국	-11.2838
▁번에	-11.2838
사리	-11.2838
▁자신만의	-11.284
▁성장한	-11.2842
▁롯데는	-11.2843
▁공존	-11.2845
▁나빠	-11.2845
▁AR	-11.2845
▁민주노총	-11.2848
함은	-11.285
업체들	-11.285
▁침몰	-11.2852
),	-11.2853
▁밖의	-11.2853
▁축산	-11.2855
▁거리에	-11.2856
▁남아공	-11.2858
▁법인세	-11.2858
▁헝가리	-11.286
age	-11.286
레이크	-11.2861
▁경향	-11.2862
운동을	-11.2863
▁건네	-11.2863
▁깨끗	-11.2863
▁효율적인	-11.2864
봄	-11.2865
▁최적화	-11.2866
▁진단했다	-11.2866
▁언론은	-11.2866
▁멍	-11.2866
▁낮춰	-11.2866
▁선거운동	-11.2867
▁주장에	-11.2867
층을	-11.2868
▁잇달아	-11.2869
▁소비자들	-11.2869
세에	-11.2869
▁케인	-11.287
스퀘어	-11.2871
▁손해배상	-11.2872
▁리그에서	-11.2873
▁현실적으로	-11.2874
▁루니	-11.2877
▁구성원	-11.288
▁골자로	-11.2881
▁DNA	-11.2884
▁우려도	-11.2884
리그에서	-11.2887
▁올스타	-11.2887
▁띈다	-11.2887
▁지나면	-11.2887
▁수익률을	-11.2887
▁be	-11.2887
▁결승에	-11.2887
▁협력해	-11.2889
▁팀장	-11.289
▁힘으로	-11.289
▁이태	-11.2891
연수	-11.2891
비전	-11.2894
▁것이냐	-11.2897
▁위안화	-11.2897
▁결정한	-11.2897
▁방식은	-11.2897
▁낸다	-11.2899
▁인질	-11.2899
▁이룰	-11.29
▁순위를	-11.29
디스	-11.2901
벼	-11.2902
▁판교	-11.2903
▁어디에	-11.2904
스트리	-11.2905
▁뛰어나다	-11.2906
▁수상했다	-11.2908
▁바른	-11.2909
▁알파	-11.2909
▁배경을	-11.291
리터	-11.291
▁인건비	-11.2911
▁추가적인	-11.2911
▁기념식	-11.2915
▁소재를	-11.2915
▁싶었	-11.2915
르기	-11.2916
▁잡았	-11.2916
▁게이트	-11.2917
훈련을	-11.2917
CP	-11.2919
▁내비쳤다	-11.292
릅니다	-11.292
▁계약이	-11.2922
이었	-11.2924
▁매수세	-11.2924
▁특위	-11.2925
▁통계청	-11.2926
▁국민적	-11.2926
맵	-11.2927
잎	-11.2927
택시	-11.2928
▁주장한다	-11.2928
▁한나라당이	-11.2929
▁사건으로	-11.293
▁시간과	-11.293
▁체험할	-11.2931
▁속한	-11.2935
▁정선	-11.2936
▁권장	-11.2938
▁선별	-11.2941
▁뜻으로	-11.2942
▁대회가	-11.2943
▁선택해	-11.2943
▁아크	-11.2944
▁않나	-11.2945
▁끝이	-11.2946
▁도입해	-11.2947
쿼터에	-11.2947
▁성폭행	-11.2947
▁경기침체	-11.2947
▁박지원	-11.2949
▁언론의	-11.295
리얼	-11.295
▁알바	-11.295
▁결정하는	-11.2951
▁글자	-11.2951
▁가능하도록	-11.2952
▁푸틴	-11.2952
▁테니스	-11.2954
▁엉	-11.2955
▁노화	-11.2955
▁기록은	-11.2956
▁훌쩍	-11.2956
▁있어도	-11.2957
ub	-11.2957
화하는	-11.2957
▁우리를	-11.296
▁두산은	-11.296
이후	-11.296
▁무리한	-11.2961
슨은	-11.2961
."	-11.2962
▁치킨	-11.2962
▁자치	-11.2965
▁바람직하다	-11.2965
▁공고	-11.2967
▁입수	-11.2967
(35	-11.2968
▁보라	-11.2968
▁면세점	-11.2968
농업	-11.2969
▁오리온스	-11.297
▁기체	-11.297
▁드디어	-11.2971
리즘	-11.2972
▁킥	-11.2973
▁장벽	-11.2974
나와	-11.2974
▁과제를	-11.2974
BO	-11.2976
▁주먹	-11.2977
느라	-11.2977
▁때와	-11.2979
고용	-11.2979
MB	-11.298
▁탑재한	-11.298
뚝	-11.298
▁가이드	-11.2981
▁제기됐다	-11.2982
▁소상공인	-11.2983
평론가	-11.2985
▁후회	-11.2985
▁지고	-11.2985
플랜	-11.2986
찍	-11.2987
▁자신은	-11.2989
▁의욕	-11.299
▁예상되고	-11.2991
▁창당	-11.2991
라인을	-11.2992
▁이러	-11.2994
디지털	-11.2994
▁대목이다	-11.2996
▁연말까지	-11.2997
이었으나	-11.2999
▁배운	-11.2999
▁단식	-11.3
▁입지를	-11.3
▁돌아보	-11.3001
▁결정적	-11.3004
스마트	-11.3005
▁포르	-11.3006
▁흰	-11.3006
▁고령	-11.3007
▁때문이	-11.3007
▁대출을	-11.3008
성적	-11.3009
지식	-11.3011
카이	-11.3011
▁늦은	-11.3011
▁팔리	-11.3011
기에는	-11.3014
▁아프	-11.3015
특보	-11.3015
▁대응을	-11.3015
▁교육감	-11.3017
▁나간다	-11.3017
▁학교에	-11.3018
▁대중교통	-11.3018
차전을	-11.3019
RT	-11.3019
▁제품들	-11.302
▁여왕	-11.3021
▁이광	-11.3022
▁갖	-11.3024
세트에서	-11.3025
▁찾아볼	-11.3026
▁윗	-11.3027
▁입성	-11.3028
▁만료	-11.3028
▁꽂	-11.3029
질서	-11.303
▁컬렉션	-11.3032
▁아라	-11.3032
▁종가	-11.3033
nd	-11.3033
RA	-11.3033
▁중이며	-11.3034
▁챔피언스	-11.3035
▁거두고	-11.3036
▁낭비	-11.3036
▁압축	-11.3037
▁발견됐다	-11.3037
▁시위를	-11.3037
▁떨어지고	-11.3039
출판	-11.3039
▁관건	-11.304
▁참가하는	-11.304
▁안쪽	-11.3041
▁지정된	-11.3042
파크에서	-11.3043
▁2500	-11.3043
▁그다지	-11.3046
▁오찬	-11.3047
▁개최했다	-11.3047
▁Korea	-11.3049
▁기대에	-11.305
▁강좌	-11.3052
▁불필요한	-11.3054
매매	-11.3055
▁토크	-11.3056
00%	-11.3056
▁IBM	-11.3059
▁워터	-11.3059
▁수령	-11.3059
▁자리가	-11.3059
▁플라스틱	-11.306
▁논의했다	-11.3061
▁사망한	-11.3062
▁훈련에	-11.3063
▁차이로	-11.3064
머스	-11.3065
▁기후	-11.3066
▁속공	-11.3069
▁포켓몬	-11.3071
▁휴대	-11.3072
되었	-11.3072
▁적용했다	-11.3074
▁하나은행	-11.3075
▁예로	-11.3075
▁남성이	-11.3075
▁지원하기	-11.3077
▁프라	-11.3078
▁경쟁력이	-11.3078
▁적합	-11.3079
▁성분이	-11.308
매장	-11.308
▁유혹	-11.3082
국은	-11.3083
▁다르지	-11.3084
▁트럭	-11.3084
▁발길	-11.3084
▁포트폴리오	-11.3084
투쟁	-11.3085
▁느꼈다	-11.3086
▁어둠	-11.3086
▁신속하게	-11.3087
사상	-11.3088
▁셋	-11.3093
AT	-11.3093
이기에	-11.3096
▁불구속	-11.3096
▁용도	-11.3097
▁득점에	-11.3098
▁파이	-11.3099
▁선거를	-11.31
▁비싸	-11.31
▁색다른	-11.31
▁방법이다	-11.3102
▁죽을	-11.3103
▁대략	-11.3104
잇	-11.3106
▁돼서	-11.3107
▁이상인	-11.3107
▁그리스도	-11.3109
ill	-11.311
▁유가족	-11.3112
윤리	-11.3112
▁청소년들	-11.3113
▁여파로	-11.3113
파일	-11.3115
▁사거리	-11.3115
▁들지	-11.3117
▁금액을	-11.3119
▁스승	-11.3119
▁사라진	-11.3119
▁홈경기에서	-11.3121
▁슬픔	-11.3122
▁세단	-11.3123
▁남았다	-11.3123
▁물량이	-11.3124
▁정치를	-11.3124
EV	-11.3128
▁병원에	-11.3128
▁정현	-11.313
▁청와대가	-11.313
티어	-11.3131
측이	-11.3131
▁깨끗한	-11.3135
▁외출	-11.3135
▁성장했다	-11.3136
춤	-11.3137
▁AT	-11.3137
▁실업률	-11.3138
▁마음의	-11.3138
클리	-11.3139
▁찾아오	-11.314
▁르노삼성	-11.314
▁5·18	-11.314
▁프로그램에	-11.3141
▁마산	-11.3142
적으로는	-11.3142
강전에서	-11.3144
마루	-11.3144
▁보태	-11.3144
▁덜어	-11.3145
시간에	-11.3149
▁내비게이션	-11.3149
ang	-11.315
▁인구가	-11.3152
술을	-11.3153
▁요약	-11.3153
3.3%	-11.3154
▁참여한다	-11.3155
~9	-11.3156
▁먹거리	-11.3157
▁않아서	-11.3158
▁면모를	-11.316
▁달고	-11.3161
▁원가	-11.3162
▁이럴	-11.3162
▁꼬집었다	-11.3162
▁험	-11.3163
지법	-11.3163
▁올스타전	-11.3165
▁오고	-11.3167
로프	-11.3167
▁들어갔	-11.3167
▁연구결과	-11.3171
▁간담회를	-11.3176
▁사용이	-11.3178
▁자본주의	-11.3181
▁소치	-11.3184
▁불편함	-11.3186
▁사용하기	-11.3187
▁괜찮	-11.3188
▁적시타	-11.3188
▁성과가	-11.3188
▁바이에른	-11.319
▁재편	-11.319
▁성폭력	-11.3192
▁늘릴	-11.3193
▁가리지	-11.3193
로써	-11.3195
전과	-11.3195
▁분데스리가	-11.3196
▁편안한	-11.3196
▁노동자들	-11.3198
oo	-11.3198
▁캐릭터가	-11.3199
▁시즌에	-11.3199
▁당국이	-11.32
▁애초에	-11.32
▁뚝	-11.32
▁네이마르	-11.3205
▁비율을	-11.3206
▁좌파	-11.3206
혜택	-11.3206
▁확대하는	-11.3207
▁확인하는	-11.3208
▁핑크	-11.3208
1.3%	-11.3209
▁당시에는	-11.321
▁뽑는	-11.3211
▁폭이	-11.3214
▁남아있	-11.3214
▁계획은	-11.3214
위원회에서	-11.3215
▁만이다	-11.3216
워크	-11.3217
▁있죠	-11.3218
▁경쟁자	-11.3219
▁이경	-11.3219
▁예산이	-11.322
셉	-11.322
▁슈틸리케	-11.3221
▁등재	-11.3223
▁나경원	-11.3224
▁이씨는	-11.3225
▁참석자들	-11.3226
셰	-11.3228
밸리	-11.3228
NG	-11.3228
▁간주	-11.3234
해요	-11.3235
▁확대될	-11.3235
▁예정돼	-11.3235
▁다짐했다	-11.3236
대회를	-11.3236
▁확보해	-11.3242
▁1993	-11.3242
▁해변	-11.3246
한화	-11.3247
타점을	-11.3247
▁실물	-11.3251
▁사람들과	-11.3252
▁시진핑	-11.3252
▁유족	-11.3253
▁않으면서	-11.3254
코어	-11.3255
▁배울	-11.3255
▁조사결과	-11.3256
▁추가했다	-11.3257
SE	-11.3258
▁될지	-11.3258
▁어두운	-11.3258
▁많기	-11.3259
▁실시했다	-11.326
▁선정한	-11.326
▁특별법	-11.3261
식당	-11.3262
프는	-11.3262
계에서	-11.3262
▁도민	-11.3263
감과	-11.3264
▁테크	-11.3265
연설	-11.3265
▁외치	-11.3265
희는	-11.3265
▁입는	-11.3266
▁상징하는	-11.3266
▁비치	-11.3266
▁Re	-11.3267
▁미래창조과학부	-11.3267
▁김준	-11.3268
요인	-11.3269
넣	-11.3271
▁식사를	-11.3272
▁시원한	-11.3272
하이닉스	-11.3272
▁1988	-11.3273
▁양극화	-11.3274
▁아들이	-11.3274
▁대형마트	-11.3276
▁강조한다	-11.3276
▁탄소	-11.3276
▁방출	-11.3276
▁죽음을	-11.3277
▁소식에	-11.3278
▁분포	-11.3278
증이	-11.3282
▁매력적인	-11.3282
▁맡게	-11.3283
▁0.4	-11.3283
특히	-11.3283
▁브랜드로	-11.3283
▁정부를	-11.3285
▁거둬	-11.3285
▁국제적	-11.3286
▁채취	-11.3287
밀리	-11.3288
▁생각에	-11.3288
전의	-11.3289
▁웃음을	-11.3289
▁한마디로	-11.329
선으로	-11.329
▁자기가	-11.3292
▁강화하기	-11.3293
ine	-11.3293
▁학력	-11.3293
증시	-11.3293
▁소개하는	-11.3293
▁매번	-11.3295
일반	-11.3295
KT	-11.3295
▁어쩌면	-11.3295
▁무서운	-11.3296
티아	-11.3296
▁몬	-11.3298
학기	-11.3298
▁씨를	-11.33
▁지역경제	-11.3301
▁시집	-11.3302
▁회담을	-11.3303
RS	-11.3304
▁혼합	-11.3304
~8	-11.3305
▁개발했다	-11.3307
▁우크라이나	-11.3308
▁집으로	-11.3312
떼	-11.3313
▁계속될	-11.3314
▁버락	-11.3315
▁나누는	-11.3316
▁차이나	-11.3317
▁반영된	-11.3317
▁맺었다	-11.3317
화는	-11.3318
사들의	-11.3319
영역	-11.3321
▁사회공헌	-11.3322
▁기상청	-11.3322
▁내년에	-11.3323
▁오케스트라	-11.3325
단계로	-11.3325
▁수비진	-11.3325
▁나뉘어	-11.3326
▁끌려	-11.3326
▁납	-11.3326
▁싸움을	-11.3326
▁밝히지	-11.3327
▁의자	-11.3329
▁호텔에서	-11.333
▁입맛	-11.333
▁전반을	-11.3331
▁삶에	-11.3331
▁학교에서	-11.3332
▁정규시즌	-11.3332
경험	-11.3334
▁투자해	-11.3336
▁창업자	-11.3336
▁활동이	-11.3338
▁거둘	-11.3338
▁안되는	-11.3338
▁사흘	-11.3338
▁원내대표가	-11.3341
▁컨테이너	-11.3343
자로서	-11.3343
업체들은	-11.3344
훈은	-11.3345
▁심하게	-11.3345
0.6%	-11.3346
▁동구	-11.3346
▁믿는다	-11.3346
▁준비해	-11.3346
▁웰	-11.3347
▁멈추	-11.3347
▁사람들도	-11.335
▁20~30	-11.3352
노선	-11.3352
스텔	-11.3355
▁포트	-11.3355
▁고객들의	-11.3356
번째로	-11.3357
▁리얼	-11.336
US	-11.336
▁분석도	-11.3361
▁피터	-11.3361
첸	-11.3362
▁스틸	-11.3363
▁아이들은	-11.3363
▁119	-11.3364
궐	-11.3365
▁악마	-11.3366
▁구두	-11.3366
▁시트	-11.3366
▁청원	-11.3366
냥	-11.3367
▁농민	-11.3371
군사	-11.3372
▁불린다	-11.3372
▁오디오	-11.3373
▁발언이	-11.3375
▁위치에	-11.3375
▁아랍	-11.3376
▁선보이	-11.3376
▁완전한	-11.3376
▁냄새	-11.3377
ers	-11.3377
▁시민들	-11.3377
▁Ch	-11.3377
ID	-11.3378
▁혼자서	-11.3379
▁대세	-11.338
▁주된	-11.3383
▁상속	-11.3383
▁판매량이	-11.3384
▁신조	-11.3388
조에	-11.3388
▁방문하는	-11.339
▁놈	-11.339
박근혜	-11.339
진의	-11.3392
▁가져오	-11.3392
▁사임	-11.3392
▁계속되고	-11.3392
▁어떨까	-11.3393
▁구성되어	-11.3395
줌	-11.3396
▁유럽에서	-11.3399
속에	-11.3399
▁하얀	-11.3399
▁정책위의장	-11.34
▁자부심	-11.34
▁퇴진	-11.3401
▁양팀	-11.3402
▁멀어	-11.3402
주차	-11.3403
▁개조	-11.3407
건전성	-11.3408
▁여야가	-11.3409
▁증상을	-11.341
▁명확히	-11.3411
▁중에서는	-11.3411
▁자유로운	-11.3412
▁논란에	-11.3413
컴퓨터	-11.3415
▁흐르는	-11.3417
라이프	-11.3418
▁나간	-11.3418
▁재확인	-11.3418
▁공헌	-11.3419
▁출발해	-11.342
▁목표다	-11.3422
▁헤이	-11.3422
▁시청자들	-11.3423
▁참가자들	-11.3424
▁출마를	-11.3425
▁나서지	-11.3425
▁팽팽	-11.3426
▁것들을	-11.3427
▁그림자	-11.3427
▁둘러싸고	-11.3428
▁옮긴	-11.3428
건에	-11.3429
▁구성된다	-11.3429
▁최고치를	-11.343
▁조건이	-11.343
▁다들	-11.3431
▁초청해	-11.3432
▁시달리	-11.3433
▁장관과	-11.3433
부지	-11.3434
▁지역별	-11.3434
▁금융당국	-11.3437
▁한결	-11.3437
0.8%	-11.3437
▁아이언	-11.3439
1.4%	-11.3439
▁변동성	-11.3439
▁마디	-11.3439
▁작가들	-11.3439
당했다	-11.344
▁키우	-11.3443
▁태극기	-11.3445
전남	-11.3445
▁감독도	-11.3448
▁재킷	-11.3448
▁대결을	-11.3449
▁소비자의	-11.3449
▁실정	-11.345
▁정세	-11.345
형은	-11.3451
▁전차	-11.3451
▁외관	-11.3452
▁특징을	-11.3452
협동조합	-11.3452
▁폭발적인	-11.3453
▁재임	-11.3456
▁자율주행	-11.346
▁종목이	-11.346
▁로스앤젤레스	-11.346
(50	-11.346
햄	-11.3461
▁때문이었다	-11.3462
▁휩쓸	-11.3463
▁수사가	-11.3465
조작	-11.3466
▁이번엔	-11.3466
임대	-11.3466
▁아나운서	-11.3467
▁달랐다	-11.3467
▁대가로	-11.3468
매수	-11.3468
해달라고	-11.347
▁나타났	-11.347
▁「	-11.3471
▁야당의	-11.3471
▁존스	-11.3472
▁괴물	-11.3473
▁압박을	-11.3473
▁계파	-11.3474
▁털어	-11.3474
▁소개하고	-11.3476
▁OECD	-11.3476
홀딩스	-11.3476
▁골대	-11.3477
철학	-11.3478
LA	-11.3479
웃	-11.348
겠고요	-11.348
카는	-11.3481
활성화	-11.3483
▁보전	-11.3484
ry	-11.3485
▁규탄	-11.3486
팀장은	-11.3486
▁주목받고	-11.3488
▁좁은	-11.3489
▁객관적	-11.3489
▁무엇일까	-11.3489
▁최상의	-11.3493
부동산	-11.3494
그룹의	-11.3495
회로	-11.3495
▁사업부	-11.3496
▁국회가	-11.3496
▁사라졌다	-11.3497
▁불만이	-11.35
▁바꿨다	-11.35
▁총리와	-11.3501
▁수호	-11.3502
3.5%	-11.3503
▁구경	-11.3505
▁중앙은행	-11.3505
▁벤처기업	-11.3505
▁국정조사	-11.3505
▁체인	-11.3506
up	-11.3506
▁감안할	-11.3507
▁좋다고	-11.3509
▁대응할	-11.3509
▁개인이	-11.351
▁온라인게임	-11.3511
▁고혈압	-11.3511
▁상단	-11.3512
음이	-11.3513
▁내용이다	-11.3514
스피	-11.3515
▁교육청	-11.3517
▁찾아내	-11.3517
▁불편을	-11.3517
▁지나지	-11.3517
▁학생이	-11.3517
▁약세를	-11.3519
▁보니까	-11.3519
버섯	-11.352
▁극적인	-11.352
▁샘	-11.352
▁세계관	-11.352
▁개혁을	-11.352
▁서술	-11.3521
▁국감	-11.3521
▁유예	-11.3521
▁홀에서	-11.3521
소장	-11.3522
▁답을	-11.3523
태평양	-11.3524
▁삼성물산	-11.3524
킴	-11.3525
▁줄였다	-11.3525
▁철저하게	-11.3527
▁꾸려	-11.3528
▁정글	-11.3529
▁느끼게	-11.3529
▁목소리도	-11.353
▁이해가	-11.353
▁비춰	-11.353
▁전문가들이	-11.353
▁일러스트	-11.3531
하진	-11.3532
수익률	-11.3533
▁뜻하는	-11.3533
▁후반전	-11.3533
▁올랐	-11.3533
▁아이콘	-11.3534
▁오리지널	-11.3534
▁협력업체	-11.3534
▁있거나	-11.3535
▁넘겼다	-11.3536
▁소스	-11.3536
▁무거운	-11.3537
▁착각	-11.3537
▁부담감	-11.3538
했다면	-11.3542
▁처리를	-11.3542
소비자	-11.3543
▁대통령에	-11.3545
준호	-11.3546
▁물고기	-11.3546
벡	-11.3547
▁사진이	-11.3547
▁170	-11.3547
▁미스	-11.3547
▁토론토	-11.3548
▁득점으로	-11.355
▁식의	-11.3552
갔고	-11.3553
▁레이더	-11.3554
▁유포	-11.3554
▁후반에	-11.3555
▁엄청	-11.3557
▁얻게	-11.3558
▁+	-11.3559
▁노르웨이	-11.356
▁인증을	-11.356
▁활동하고	-11.3561
▁나오면서	-11.3561
▁사직	-11.3562
▁인양	-11.3564
▁국내에서는	-11.3564
배로	-11.3565
▁골망	-11.3566
▁유니폼	-11.3567
▁복무	-11.3569
▁실질	-11.357
▁이지	-11.3571
▁과다	-11.3577
연은	-11.3578
▁깊어	-11.3578
▁정리해	-11.3578
▁세인트루이스	-11.3579
▁하려고	-11.3579
왔지만	-11.3579
▁격차가	-11.358
▁고객들에게	-11.358
▁몰라	-11.3581
▁여드름	-11.3582
러시아	-11.3583
정확	-11.3584
▁특사	-11.3585
▁천천히	-11.3585
▁승패	-11.3587
▁혼다	-11.3587
▁중심이	-11.3587
▁장기화	-11.3587
▁까닭	-11.3589
▁지나친	-11.3589
▁어렵고	-11.359
청구	-11.359
▁기억이	-11.359
임금	-11.3591
▁가늠	-11.3592
▁않았기	-11.3593
▁기관의	-11.3595
▁있었다는	-11.3596
▁챙겼다	-11.3596
▁장성	-11.3597
▁중대한	-11.3599
▁치르는	-11.3604
▁매장에서	-11.3606
▁거품	-11.3608
▁달렸다	-11.3608
▁참배	-11.3609
▁해적	-11.3609
▁감자	-11.361
▁후배들	-11.3611
▁기재	-11.3611
▁<	-11.3612
▁안착	-11.3613
▁대주주	-11.3613
▁서비스로	-11.3616
봉사	-11.3618
▁저작권자	-11.3618
▁몸매	-11.3619
▁하락세	-11.362
드레	-11.3621
2.3%	-11.3623
▁관련해서	-11.3624
▁희귀	-11.3626
▁펼쳐지는	-11.3626
ee	-11.3627
▁겨울철	-11.3629
령을	-11.3637
▁패러다임	-11.3637
▁공부를	-11.3637
▁독려	-11.3638
▁막상	-11.3638
▁민정수석	-11.364
금융그룹	-11.3641
▁정체성	-11.3643
▁러시아의	-11.3645
▁만들어낸	-11.3646
▁비유	-11.3647
▁지인	-11.3648
▁이젠	-11.3649
▁편리하게	-11.365
2.4%	-11.3651
▁장관을	-11.3651
▁우대	-11.3652
▁장난	-11.3653
▁장사	-11.3654
▁원금	-11.3655
▁진동	-11.3655
ip	-11.3655
▁대신해	-11.3656
회차	-11.3658
▁공세를	-11.3661
▁오면	-11.3661
책임자	-11.3661
▁강등	-11.3662
▁종족	-11.3664
▁분석됐다	-11.3665
▁가능하게	-11.3666
플러	-11.3667
있어	-11.3668
▁깎	-11.3669
▁궤도	-11.3671
▁크라	-11.3673
화면	-11.3675
▁왼손	-11.3676
▁배분	-11.3677
▁업계는	-11.3677
▁확인된	-11.3678
▁운영에	-11.3678
▁대표팀에	-11.3679
▁경제성장	-11.3679
▁스티브	-11.3679
▁보고서에	-11.3679
▁무단	-11.368
류를	-11.368
▁방안에	-11.3685
▁채권단	-11.3686
▁악성코드	-11.3686
▁제기된	-11.3687
시쯤	-11.3687
0.9%	-11.3687
▁국방장관	-11.3687
▁모양의	-11.3687
▁파라	-11.3687
▁완벽	-11.3688
▁알아야	-11.3689
▁주의해야	-11.3689
▁회사에	-11.3689
▁국무장관	-11.3689
▁파는	-11.3689
형이	-11.3691
▁인플레이션	-11.3693
▁삽입	-11.3693
였다고	-11.3693
▁거액	-11.3694
▁개인적인	-11.3695
▁공단	-11.3697
▁제재를	-11.3697
▁제작된	-11.3699
▁이모	-11.37
화해	-11.3701
일수록	-11.3701
▁선제	-11.3703
▁공정한	-11.3705
중소기업	-11.3705
▁STX	-11.3706
당의	-11.3706
▁선관위	-11.3707
▁눈앞에	-11.3707
▁퇴출	-11.3707
EM	-11.3709
▁부분도	-11.371
▁발라	-11.3711
▁상관	-11.3712
▁절약	-11.3712
▁도루	-11.3713
▁보물	-11.3713
멘트	-11.3714
▁재미있	-11.3715
▁쇠	-11.3716
▁연속으로	-11.3718
▁유로존	-11.3718
(36	-11.372
▁명동	-11.372
▁다음주	-11.3721
▁추가된	-11.3722
▁미래의	-11.3723
▁전일	-11.3723
▁대미지	-11.3724
세이	-11.3724
▁떠올랐다	-11.3724
▁재검토	-11.3725
▁열쇠	-11.3728
▁둘러보	-11.3728
▁유연	-11.3728
▁의사가	-11.3728
▁비해서	-11.3731
▁나누고	-11.3732
▁원의	-11.3732
▁성공할	-11.3732
▁윌	-11.3733
▁자세로	-11.3735
▁문체부	-11.3735
▁여정	-11.3738
▁좀비	-11.3738
▁김주	-11.374
▁사원	-11.374
▁진심으로	-11.3743
ON	-11.3744
▁업체의	-11.3745
▁알려지지	-11.3746
▁선호도	-11.3747
그린	-11.3748
▁골로	-11.3748
0.7%	-11.3749
업계의	-11.375
찜	-11.3752
▁많지만	-11.3752
리치	-11.3752
os	-11.3752
▁직원들의	-11.3753
폭이	-11.3755
엔드	-11.3756
▁요소가	-11.3756
▁kt	-11.3757
인간	-11.3759
▁총액	-11.3759
▁손목	-11.3759
▁시골	-11.376
▁수비에	-11.376
▁행성	-11.3763
동향	-11.3763
브리	-11.3763
▁목적이	-11.3763
SC	-11.3763
▁벌어지	-11.3766
▁업체인	-11.3767
▁획득한	-11.3768
마는	-11.3769
▁감동을	-11.3769
▁호소했다	-11.3769
▁지났	-11.377
▁한우	-11.377
바라	-11.377
딸	-11.3771
▁모두에게	-11.3771
▁포도	-11.3771
▁4~5	-11.3772
▁관리에	-11.3775
▁시스템은	-11.3775
▁KBO	-11.3776
하세요	-11.3777
▁전략이	-11.3777
▁플래시	-11.3779
▁이미지가	-11.3779
▁서둘러	-11.3781
▁요시	-11.3783
▁김일성	-11.3783
▁합산	-11.3784
▁성남시	-11.3784
▁시절에	-11.3787
▁정권이	-11.3788
▁펼치며	-11.3789
▁선택했다	-11.379
BM	-11.379
▁예능	-11.3791
▁퀸	-11.3791
▁불어넣	-11.3791
객들	-11.3791
NI	-11.3794
폴리	-11.3794
▁아버지의	-11.3795
하에	-11.3798
SW	-11.3798
▁신용등급	-11.3799
▁주중	-11.3799
▁MC	-11.38
▁한눈에	-11.3801
▁인정하고	-11.3801
▁올해의	-11.3802
▁무패	-11.3803
▁실효성	-11.3804
▁가능하고	-11.3804
▁이야기는	-11.3805
▁금리가	-11.3806
▁거주하는	-11.3806
▁소아	-11.3807
이런	-11.3807
▁되기도	-11.3808
▁제출했다	-11.3809
▁원형	-11.3809
▁제시하고	-11.3809
▁부장판사	-11.3811
▁가족의	-11.3811
▁맞물려	-11.3811
▁통치	-11.3812
▁de	-11.3813
인데다	-11.3814
▁수천	-11.3814
▁1991	-11.3814
개인	-11.3815
▁저지른	-11.3815
▁앞으로는	-11.3816
▁중부지방	-11.3818
▁핵심은	-11.3819
▁비자	-11.3819
▁우리나라에서	-11.3819
▁주어진	-11.382
▁배신	-11.382
▁수요를	-11.3821
▁짐작	-11.3821
▁설명한다	-11.3822
도까지	-11.3824
▁가능하다는	-11.3824
▁신태용	-11.3824
TF	-11.3825
▁포스	-11.3826
개편	-11.383
▁입문	-11.383
▁졌다	-11.3831
▁적었다	-11.3832
▁위험성	-11.3832
▁조기에	-11.3833
▁말하기	-11.3833
1.9%	-11.3833
▁아마도	-11.3833
▁와이브로	-11.3834
▁정책의	-11.3837
▁아이의	-11.3839
▁인생의	-11.384
▁아니기	-11.3842
▁들은	-11.3842
▁캠퍼스	-11.3843
▁주한	-11.3843
▁외식	-11.3843
▁개념을	-11.3843
▁안동	-11.3844
▁교원	-11.3845
억원에서	-11.3845
공예	-11.3845
지상	-11.3849
▁바닥에	-11.385
비트	-11.3851
▁분비	-11.3852
▁요건	-11.3853
▁상봉	-11.3853
▁등판해	-11.3854
▁팬택	-11.3855
하죠	-11.3856
▁통과한	-11.3858
▁기록이	-11.3858
▁대선에서	-11.3859
▁실시할	-11.386
▁신선한	-11.3864
▁이청용	-11.3864
왜	-11.3865
▁후퇴	-11.3866
▁경쟁에서	-11.387
▁아메리카	-11.3871
▁보냈	-11.3871
▁영문	-11.3871
▁점수는	-11.3871
▁아니며	-11.3871
▁일정한	-11.3873
▁가라앉	-11.3874
▁야생	-11.3874
동물	-11.3874
▁가죽	-11.3876
▁독립운동	-11.3877
GHz	-11.3877
▁일일	-11.3877
▁원조	-11.3878
▁연결된	-11.3878
▁낮게	-11.3878
▁헛	-11.3878
국을	-11.3879
▁미래에	-11.388
WSJ	-11.388
▁선보여	-11.3881
▁유래	-11.3886
▁결과다	-11.3887
▁언젠가	-11.3887
▁갱	-11.3887
▁자신감이	-11.3889
▁울리	-11.3889
▁농담	-11.389
▁올레	-11.3891
의약품	-11.3892
▁하락세를	-11.3893
기능을	-11.3893
SNS	-11.3895
▁전국에서	-11.3898
▁선거에	-11.3899
▁편견	-11.39
▁DJ	-11.3901
▁내역	-11.3901
▁벗어나지	-11.3902
▁파크	-11.3903
▁뭉	-11.3903
▁저희가	-11.3903
▁채널을	-11.3903
범위	-11.3904
달러로	-11.3906
▁팀에서	-11.3907
니가	-11.3907
▁보이면서	-11.3908
▁조직력	-11.3909
아니	-11.391
▁국민들에게	-11.391
▁한양대	-11.391
▁해석된다	-11.3911
▁자영업자	-11.3911
CE	-11.3911
▁스펙	-11.3913
▁뭘	-11.3914
▁외화	-11.3914
▁제공한	-11.3915
▁썩	-11.3915
화의	-11.3915
▁관리가	-11.3915
▁마다	-11.3916
▁교실	-11.3916
▁강화했다	-11.3916
▁걷기	-11.3918
▁염려	-11.3918
▁부진을	-11.3918
만원에서	-11.392
▁포기하지	-11.392
▁벌일	-11.392
팝	-11.3922
어드	-11.3926
▁농사	-11.3927
▁낮추	-11.3927
▁체결한	-11.3928
▁청정	-11.3928
▁적극적	-11.3928
▁많다는	-11.3928
▁하겠다고	-11.393
▁브리핑에서	-11.3931
막이	-11.3931
자료를	-11.3932
▁많았	-11.3933
▁루트	-11.3935
▁방송통신위원회	-11.3935
했죠	-11.3935
▁후보에	-11.3936
▁찰	-11.3937
▁이번주	-11.3937
스틴	-11.3937
▁상품은	-11.3938
▁느꼈	-11.3939
▁필자	-11.3939
턱	-11.3939
▁이원	-11.394
▁다툼	-11.3941
▁삼진으로	-11.3942
▁표현한	-11.3943
▁석탄	-11.3943
▁국민들	-11.3943
▁연구위원	-11.3947
▁곳곳	-11.3948
실험	-11.3948
▁감사의	-11.3949
▁요청한	-11.3949
냐는	-11.395
미니	-11.3951
▁한마디	-11.3951
차례에	-11.3952
▁꿀	-11.3952
▁프라이	-11.3953
▁리서치	-11.3953
▁의미하는	-11.3955
▁투입된	-11.3957
방어	-11.3958
▁디스크	-11.396
▁김창	-11.3963
▁표현했다	-11.3964
▁혁신적인	-11.3966
▁제한적	-11.3967
행사를	-11.3967
협의	-11.3967
▁미미	-11.3968
다른	-11.3969
▁하나씩	-11.397
보스	-11.397
▁경험과	-11.397
▁했기	-11.397
▁변수가	-11.3971
▁나가겠다	-11.3971
▁스프링	-11.3972
▁얼굴에	-11.3972
▁정례	-11.3973
둑	-11.3973
▁리듬	-11.3974
▁개최되는	-11.3975
목적	-11.3976
▁시일	-11.3977
▁아스날	-11.3978
▁우연히	-11.3979
거리가	-11.398
▁적용되는	-11.3981
▁과태료	-11.3981
▁아이들에게	-11.3981
▁몰랐	-11.3981
▁빌리	-11.3982
▁상용	-11.3982
▁야마	-11.3983
▁미국을	-11.3983
▁과열	-11.3984
▁기간은	-11.3984
▁―	-11.3984
▁관장	-11.3985
용지	-11.3985
▁어시스트	-11.3986
▁내려오	-11.3986
쇼핑	-11.3988
▁자정	-11.3988
디아	-11.3989
▁초대형	-11.3989
▁휘발유	-11.3991
▁대사는	-11.3992
만으로는	-11.3992
▁일부러	-11.3992
▁우위	-11.3993
▁의석	-11.3993
크라	-11.3994
달러에	-11.3995
▁일본군	-11.3995
▁시절부터	-11.3996
SL	-11.3998
▁장점이다	-11.3998
▁롯데백화점	-11.3998
000	-11.4
▁낚	-11.4002
좋은	-11.4002
▁기술개발	-11.4002
▁특화된	-11.4003
▁만의	-11.4005
사이드	-11.4006
▁달리는	-11.4006
▁정상적으로	-11.4007
▁이야기다	-11.4008
▁엘리트	-11.4008
사키	-11.4009
▁세탁	-11.401
▁작품으로	-11.401
▁수원은	-11.401
▁과징금	-11.4011
▁스폰서	-11.4011
자책	-11.4011
▁순방	-11.4013
아는	-11.4013
▁n	-11.4015
▁요청을	-11.4016
▁육박	-11.4016
팟	-11.4016
▁각성	-11.4018
취업	-11.4019
▁비난을	-11.402
받는다	-11.402
▁역사와	-11.4021
▁게임이다	-11.4022
CT	-11.4024
▁필라델피아	-11.4025
▁재보선	-11.4025
나노	-11.4025
지부	-11.4026
▁시한	-11.4027
간에	-11.4027
▁김현정	-11.403
▁신년	-11.4031
▁→	-11.4031
▁골목	-11.4031
▁상승을	-11.4032
부리그	-11.4033
▁상점	-11.4034
▁무언가	-11.4035
십시오	-11.4035
▁체계적인	-11.4036
▁실린	-11.4037
▁시상	-11.4038
▁스타크래프트	-11.4039
▁설문	-11.4039
▁찾았	-11.4039
▁외환은행	-11.4039
▁대단한	-11.4039
res	-11.404
▁받았다고	-11.404
▁개발된	-11.4041
▁오늘도	-11.4042
수수료	-11.4042
▁지시했다	-11.4042
▁지능	-11.4044
▁선교	-11.4044
▁공이	-11.4045
▁치료가	-11.4047
▁두바이	-11.4048
머신	-11.4051
▁일으키는	-11.4051
편을	-11.4052
▁숨기	-11.4053
▁산소	-11.4054
▁튼튼	-11.4055
▁IOC	-11.4056
▁주변에서	-11.4056
▁모습이었다	-11.4057
▁유용	-11.4058
▁뉴욕타임스	-11.406
▁발생하고	-11.4061
▁박용	-11.4061
▁기습	-11.4062
▁예매	-11.4063
▁융	-11.4063
겸	-11.4065
▁주연	-11.4066
ain	-11.4067
분양	-11.4068
▁무리가	-11.4068
위성	-11.4068
▁근원	-11.4068
▁자진	-11.407
▁구동	-11.407
▁은행권	-11.4072
▁청와대에서	-11.4073
▁커브	-11.4074
▁일간지	-11.4075
졌으며	-11.4076
▁국악	-11.4076
▁공적	-11.4078
히트	-11.4078
▁윙	-11.4078
▁그치지	-11.4079
▁원동력	-11.408
▁팀으로	-11.4081
겠는가	-11.4083
▁리콜	-11.4083
▁일고	-11.4084
▁끊이지	-11.4084
▁물리적	-11.4087
▁잠을	-11.4087
▁걸린다	-11.4087
▁is	-11.4088
▁자사의	-11.4089
▁사회에서	-11.4089
▁포괄적	-11.4089
▁투표를	-11.4089
▁본부장은	-11.409
▁일로	-11.4091
▁자유를	-11.4092
▁시애틀	-11.4092
▁관계자들은	-11.4095
▁싶다면	-11.4095
▁바위	-11.4098
북부	-11.4099
군수	-11.41
▁대표팀의	-11.4102
sp	-11.4105
▁특강	-11.4105
▁나서야	-11.4107
해줬다	-11.4108
꿈	-11.4108
▁프로그램으로	-11.4109
▁권한대행	-11.4109
▁집착	-11.411
▁고민이	-11.411
조치를	-11.411
▁시기가	-11.4111
▁액세서리	-11.4113
▁공통점	-11.4113
친화	-11.4113
▁돌아가는	-11.4114
▁노리	-11.4123
릇	-11.4124
▁케빈	-11.4125
ong	-11.4127
▁않느냐	-11.4128
▁트위터에	-11.4128
▁충성	-11.4129
▁백업	-11.4132
▁옹	-11.4134
▁영입을	-11.4134
▁미국인	-11.4135
▁수신	-11.4135
총상금	-11.4135
▁8%	-11.4136
▁묻어	-11.4136
▁공판	-11.4137
▁나누어	-11.4138
▁이사는	-11.4139
▁의료기관	-11.414
▁스킬을	-11.414
▁경사	-11.4141
▁친절	-11.4142
습니까	-11.4142
▁연구에	-11.4143
▁평화를	-11.4145
▁도와주	-11.4147
왈	-11.4147
배에	-11.415
▁이르렀다	-11.4151
▁송도	-11.4153
▁약정	-11.4153
줘서	-11.4156
▁용서	-11.4157
▁신성	-11.4157
마음	-11.4159
▁알기	-11.416
▁일으킬	-11.416
뽀	-11.416
▁상상력	-11.4161
정부가	-11.4161
▁임대료	-11.4161
▁경기서	-11.4162
▁더했다	-11.4162
▁삼성그룹	-11.4162
▁경제성장률	-11.4162
▁본문	-11.4163
▁교육과정	-11.4165
재판	-11.4167
▁선택하는	-11.4167
▁해지	-11.4169
▁아우디	-11.4169
문서	-11.4169
▁대상에	-11.417
▁활발하게	-11.417
▁체계를	-11.417
▁중거리	-11.417
▁1.2	-11.4171
▁1.6	-11.4171
해보자	-11.4171
▁국가대표팀	-11.4172
▁사막	-11.4172
our	-11.4173
▁할까	-11.4174
▁시리즈의	-11.4174
체인	-11.4175
▁어차피	-11.4178
▁유럽축구연맹	-11.4179
▁베일	-11.4179
4.5%	-11.418
▁넓히	-11.418
▁검정	-11.418
▁하이닉스	-11.4181
▁초부터	-11.4182
▁흠	-11.4182
▁하라	-11.4184
▁급식	-11.4184
▁리모델링	-11.4188
쳤던	-11.419
출입	-11.419
▁진압	-11.4192
▁당국의	-11.4192
▁노조는	-11.4193
폭탄	-11.4193
▁보편적	-11.4194
▁부족해	-11.4195
▁사정이	-11.4195
▁출처	-11.4197
2.9%	-11.4199
▁정보기술	-11.42
▁처한	-11.42
▁기다리는	-11.4204
▁우편	-11.4204
좋	-11.4204
▁커리어	-11.4207
▁스토어	-11.4207
▁3.5	-11.4208
▁과학적	-11.4208
CG	-11.4209
▁사건과	-11.421
▁풀리	-11.421
▁그녀가	-11.421
▁투명성	-11.4211
▁애매	-11.4211
▁원활한	-11.4211
▁익숙한	-11.4212
▁장미	-11.4212
배가	-11.4213
▁던지는	-11.4213
▁거뒀	-11.4215
▁오렌지	-11.4216
▁되어야	-11.4216
▁주장은	-11.4217
▁사회가	-11.4217
▁이색	-11.4218
▁싫	-11.4221
▁김모	-11.4223
▁타석에	-11.4225
▁계속된	-11.4227
▁줄인	-11.4227
▁소극적	-11.4227
▁이틀간	-11.4229
▁개막식	-11.4231
▁앞섰다	-11.4232
전에서는	-11.4234
공유	-11.4238
▁여유가	-11.424
믹	-11.424
▁박경	-11.4241
▁유성	-11.4241
▁남지	-11.4241
▁통행	-11.4241
▁잡혀	-11.4242
도움을	-11.4243
▁외에는	-11.4243
▁대국민	-11.4243
봤습니다	-11.4245
쟁이	-11.4246
벌레	-11.4247
졌기	-11.4247
▁재활용	-11.4247
▁교장	-11.4247
▁소멸	-11.4248
▁외국계	-11.4249
TC	-11.425
▁소장은	-11.4252
pe	-11.4255
▁중개	-11.4255
▁불가피하다	-11.4256
▁상황이었다	-11.4257
▁서식	-11.4258
▁발생하지	-11.4259
▁전제로	-11.4259
▁일본을	-11.4259
레드	-11.426
μ	-11.426
▁탐지	-11.4261
▁미안	-11.4262
▁드레스	-11.4263
▁단계에서	-11.4265
했음에도	-11.4266
▁소유자	-11.4268
즌	-11.4269
▁오른다	-11.4269
▁침대	-11.4271
했으니	-11.4271
▁체코	-11.4271
망이	-11.4273
독일	-11.4273
▁왜냐하면	-11.4274
밋	-11.4274
이긴	-11.4274
겠죠	-11.4274
▁걱정이	-11.4277
▁뮤	-11.4277
▁온천	-11.4278
▁이보다	-11.4278
▁김희	-11.4281
°	-11.4281
▁삶이	-11.4284
▁일부는	-11.4284
▁집중할	-11.4285
위원회에	-11.4286
▁페널티	-11.4287
중학교	-11.4287
▁장시간	-11.4289
▁않으려	-11.4291
회와	-11.4291
▁결함	-11.4292
있던	-11.4292
덩	-11.4293
▁꽉	-11.4294
▁포드	-11.4294
▁대단	-11.4295
버리고	-11.4297
▁원정에서	-11.4297
▁보답	-11.4297
▁한숨	-11.4298
▁위조	-11.4298
게이트	-11.4299
▁학생들을	-11.4299
▁안정된	-11.4301
▁책이다	-11.4302
▁신속한	-11.4302
▁판타지	-11.4302
▁고객은	-11.4303
▁처리할	-11.4304
▁걷는	-11.4304
▁전망도	-11.4305
▁KDB	-11.4308
▁끌어내	-11.4309
▁알코올	-11.4309
▁없다며	-11.4309
▁설명했습니다	-11.4309
▁남을	-11.4309
▁관통	-11.4309
▁강해	-11.4311
▁카라	-11.4312
▁결승전에서	-11.4313
▁시작했고	-11.4314
▁맞선	-11.4316
▁감싸	-11.4317
▁크기의	-11.4317
닷	-11.4319
▁평화와	-11.4321
▁잃지	-11.4323
▁떠날	-11.4323
▁알려졌	-11.4323
▁불확실성	-11.4324
▁해커	-11.4324
▁섰다	-11.4324
▁출현	-11.4326
▁제외하고는	-11.4326
▁고장	-11.4326
▁중대	-11.4329
▁레인	-11.433
▁연맹	-11.4331
설명회	-11.4333
▁벨트	-11.4333
▁캘리포니아주	-11.4333
▁피고인	-11.4335
▁달간	-11.4335
▁마찰	-11.4338
▁국민과	-11.4338
▁권력을	-11.4339
▁만나게	-11.434
▁앞세운	-11.434
▁아시안컵	-11.434
사항을	-11.434
▁주장한	-11.4341
▁링	-11.4341
▁당사	-11.4341
우주	-11.4341
회사인	-11.4346
▁대면	-11.4346
▁쪽에서	-11.4348
▁풀려	-11.4349
▁주었다	-11.435
▁밝힐	-11.4352
숭	-11.4352
▁경제에	-11.4353
▁무승부를	-11.4354
▁만다	-11.4354
▁육아	-11.4356
▁계곡	-11.4356
▁불량	-11.4356
▁바디	-11.4357
▁캡처	-11.4358
▁통영	-11.436
▁기능은	-11.4362
▁젤	-11.4363
▁야기	-11.4363
2.6%	-11.4364
▁부풀	-11.4364
▁KBL	-11.4364
▁피하기	-11.4365
▁턴	-11.4365
▁일간	-11.4367
▁찍었다	-11.4368
▁추가골	-11.4369
검찰	-11.437
▁짓고	-11.4372
▁하단	-11.4372
▁그렇습니다	-11.4372
비리	-11.4373
▁연령대	-11.4373
▁빠졌	-11.4374
▁쪽이	-11.4375
▁신학	-11.4375
▁선제골	-11.4378
▁살아가	-11.4379
▁친박계	-11.438
▁신상	-11.4381
비중	-11.4381
▁심해	-11.4382
▁꿈꾸는	-11.4383
테스트	-11.4384
▁병원으로	-11.4385
▁코레일	-11.4386
부모	-11.4386
▁자연스러운	-11.4386
▁봉쇄	-11.4387
▁찾는다	-11.4387
대사관	-11.4387
▁해왔다	-11.4387
▁대지	-11.4388
▁선수들도	-11.4388
▁커쇼	-11.4389
▁/	-11.4389
▁지위	-11.4391
▁개선에	-11.4391
故	-11.4392
곳에서	-11.4394
net	-11.4395
부족	-11.4396
▁쌓여	-11.4398
MHz	-11.4399
▁꼼꼼히	-11.44
▁호르몬	-11.4401
▁평일	-11.4401
님께서	-11.4401
▁공제	-11.4403
▁도르트문트	-11.4403
▁송파구	-11.4404
▁MB	-11.4404
▁승리한	-11.4407
▁차관보	-11.4408
▁구석	-11.4408
▁남동	-11.4409
中	-11.441
▁자아	-11.441
▁USB	-11.441
▁지역별로	-11.4412
국인	-11.4412
▁최첨단	-11.4413
▁소망	-11.4415
▁한겨레	-11.4417
▁삶과	-11.4418
▁집필	-11.4419
▁책에서	-11.4419
▁부가가치	-11.4421
▁학업	-11.4421
▁울트라	-11.4422
▁연습을	-11.4423
▁흥미로운	-11.4424
▁지역이	-11.4426
차익	-11.4426
▁경기에서는	-11.4426
▁성취	-11.4426
▁공간으로	-11.4426
▁카드사	-11.4426
▁중남미	-11.4428
재원	-11.4428
▁진단을	-11.443
▁관련이	-11.443
▁여성들이	-11.4432
▁최소한의	-11.4432
▁엄중	-11.4432
▁흰색	-11.4433
개에	-11.4433
탄을	-11.4434
▁벌인다	-11.4434
▁돌아갔다	-11.4434
▁유리하다	-11.4436
▁호평을	-11.4436
▁붙은	-11.4437
▁돋보이는	-11.4438
▁흥미	-11.4438
▁구축하고	-11.4439
(40	-11.4439
▁서정	-11.444
프로골프	-11.4441
훼	-11.4442
▁피어	-11.4442
▁많습니다	-11.4443
▁전달하는	-11.4443
▁잃었다	-11.4444
조가	-11.4445
▁사항을	-11.4445
▁몰입	-11.4446
▁미쳤다	-11.4447
▁팽팽한	-11.4447
▁우익수	-11.4449
▁회사채	-11.445
포털	-11.445
▁국영	-11.4452
▁대하여	-11.4452
▁체계적	-11.4455
2011	-11.4455
▁기뻐	-11.4457
▁실시하는	-11.4458
▁특징은	-11.4458
▁수감	-11.4458
▁수업을	-11.4459
▁김광	-11.4459
▁베네수엘라	-11.4459
버려	-11.4463
▁하수	-11.4463
코프	-11.4464
이었기	-11.4464
▁임직원들	-11.4465
▁차지하며	-11.4466
▁03	-11.4467
▁무덤	-11.4467
▁징계를	-11.4468
▁식민지	-11.447
▁공연이	-11.4472
TM	-11.4473
업체의	-11.4473
▁시력	-11.4474
▁하나도	-11.4474
▁프로축구	-11.4476
▁미용	-11.4476
▁더이상	-11.4477
▁탈레반	-11.4477
▁발음	-11.4479
엔지니어링	-11.448
▁당신이	-11.4481
▁듣기	-11.4482
▁해법	-11.4483
▁공산당	-11.4484
▁중산층	-11.4484
▁조문	-11.4485
지현	-11.4485
공천	-11.4486
▁쪽은	-11.4488
▁일조	-11.4488
▁취미	-11.449
파이어	-11.449
▁성능이	-11.4491
▁박진	-11.4491
▁주도하는	-11.4491
틱스	-11.4491
IN	-11.4492
▁주부	-11.4492
▁OK	-11.4492
의료원	-11.4492
소식	-11.4492
▁빛나는	-11.4493
▁신영	-11.4494
▁의미에서	-11.4495
▁1·2	-11.4495
역량	-11.4496
▁남부지방	-11.4496
텔레콤의	-11.4497
▁규격	-11.4498
▁중국어	-11.4499
LED	-11.45
경기장에서	-11.45
변동	-11.4501
스파	-11.4503
공시	-11.4503
▁전했습니다	-11.4504
▁낯선	-11.4505
ark	-11.4506
▁맡는다	-11.4506
▁검거	-11.4507
▁워크숍	-11.4509
▁졸업한	-11.451
▁개발과	-11.451
2.7%	-11.4511
ard	-11.4512
▁증폭	-11.4514
▁탕	-11.4515
뚜	-11.4516
▁VS	-11.452
▁메모	-11.4521
▁창구	-11.4522
▁안드레	-11.4523
클래스	-11.4524
▁대의원	-11.4525
▁실사	-11.4527
TE	-11.4528
▁경질	-11.4529
어린이	-11.4529
큐브	-11.4529
▁평소에	-11.453
▁뛰어넘는	-11.4531
▁명확한	-11.4532
▁강력하게	-11.4533
▁라면서	-11.4534
고교	-11.4535
▁위법	-11.4535
▁인물이다	-11.4536
qu	-11.4538
▁단원	-11.4538
혜진	-11.4539
총리	-11.4539
▁수준에서	-11.4539
▁대표적이다	-11.454
SM	-11.454
그림	-11.4541
▁넉넉	-11.4541
▁마리아	-11.4542
▁표지	-11.4542
ant	-11.4543
▁》	-11.4543
▁건설사	-11.4544
▁얻었	-11.4545
▁업무협약	-11.4546
▁금액은	-11.4546
롯	-11.4547
▁주한미군	-11.4548
▁이슈가	-11.4549
회관에서	-11.4551
▁뒀다	-11.4551
온다	-11.4551
▁지난해까지	-11.4552
▁고심	-11.4552
▁않기로	-11.4553
▁고유의	-11.4554
▁크다는	-11.4554
▁지위를	-11.4555
▁끄는	-11.4557
행복	-11.4558
▁솔직히	-11.4558
▁넓혀	-11.4559
▁확대에	-11.456
ass	-11.456
슬러	-11.4562
▁시중은행	-11.4563
▁1989	-11.4564
▁교전	-11.4564
지수가	-11.4564
▁잠수함	-11.4565
▁서울중앙지법	-11.4566
』	-11.4566
정보통신	-11.457
▁소주	-11.457
▁3.0	-11.457
ca	-11.4571
경선	-11.4571
▁기소된	-11.4572
▁제품과	-11.4573
▁어느정도	-11.4573
▁연승	-11.4573
▁사항은	-11.4575
▁탱크	-11.4575
▁인터넷을	-11.4576
1.8%	-11.4576
옌	-11.4576
지원을	-11.4577
▁낮아지	-11.4578
사업은	-11.4579
▁반짝	-11.458
▁자신도	-11.4581
▁발표하고	-11.4582
▁효능	-11.4584
캠퍼스	-11.4585
▁무기를	-11.4585
▁고립	-11.4585
IST	-11.4586
▁모리	-11.4587
종으로	-11.459
▁원으로	-11.4591
▁베타	-11.4591
스럽고	-11.4591
▁문화재청	-11.4591
▁정책과	-11.4595
아스	-11.4595
▁비용은	-11.4596
▁외국어	-11.4598
해냈다	-11.4599
▁AFC	-11.46
▁슬로건	-11.4602
▁월드컵에서	-11.4602
▁세무	-11.4603
▁교수와	-11.4604
NE	-11.4604
▁말하며	-11.4605
▁겁	-11.4606
충전	-11.4607
▁웨스트	-11.4608
▁즐겁게	-11.4608
행위를	-11.4609
▁웨딩	-11.461
mg	-11.461
1.6%	-11.4611
▁보였던	-11.4611
리움	-11.4612
▁되풀이	-11.4612
▁아세안	-11.4612
▁만나볼	-11.4613
▁동대문	-11.4616
▁치는	-11.4616
▁넘는다	-11.4617
▁치료법	-11.4618
▁기점으로	-11.4618
▁아까	-11.4619
▁개최된	-11.462
▁냉각	-11.4621
▁상회	-11.4623
▁알았다	-11.4623
AL	-11.4623
강원	-11.4623
▁바짝	-11.4625
▁증가로	-11.4626
▁파도	-11.4627
▁있고요	-11.4629
위치	-11.4629
▁기술의	-11.463
▁상품으로	-11.463
▁뚫고	-11.4631
▁감추지	-11.4632
지훈	-11.4633
▁금리인상	-11.4634
▁대원	-11.4637
▁유죄	-11.4637
▁계획에	-11.4638
사들은	-11.4638
▁효과도	-11.4639
효과가	-11.464
▁입대	-11.464
▁한발	-11.4642
SF	-11.4642
▁간편하게	-11.4642
▁분야별	-11.4643
▁사례는	-11.4644
▁판단해	-11.4644
▁민중	-11.4644
▁강구	-11.4644
▁협상에	-11.4645
▁출전했다	-11.4646
영화제	-11.4647
남부	-11.4647
▁그들을	-11.465
▁왕복	-11.465
▁런	-11.4651
▁무용	-11.4651
▁배우고	-11.4651
▁이산가족	-11.4651
카를	-11.4652
▁기가	-11.4652
▁땅볼로	-11.4653
개입	-11.4654
▁글이	-11.4654
▁단편	-11.4655
▁급격한	-11.4655
▁건수	-11.4656
▁그라	-11.4657
(37	-11.4658
▁포진	-11.466
▁종합적으로	-11.4661
▁구축해	-11.4662
▁크리	-11.4663
▁우려했다	-11.4664
▁배워	-11.4665
업소	-11.4665
▁아카	-11.4665
▁배럴당	-11.4666
▁뜻한다	-11.4666
▁막바지	-11.4666
▁유지하기	-11.4667
▁이뤄졌	-11.4668
UEFA	-11.4668
▁안면	-11.4668
▁반사	-11.4669
▁주무	-11.4672
no	-11.4673
▁벌어	-11.4673
▁지붕	-11.4674
▁차익	-11.4674
▁근거가	-11.4675
▁감상할	-11.4676
▁그릇	-11.4676
▁방사선	-11.4677
▁신청한	-11.4678
▁공개적으로	-11.4678
▁생명을	-11.468
▁지지자들	-11.4681
▁화질	-11.4681
업체가	-11.4682
▁청탁	-11.4682
▁항구	-11.4683
▁콜로라도	-11.4684
▁근처에	-11.4684
▁자체적으로	-11.469
ver	-11.4692
▁우즈베키스탄	-11.4693
▁모레	-11.4694
▁주도한	-11.4694
겨울	-11.4695
▁늘어난다	-11.4696
▁권영	-11.4697
건수	-11.4698
▁가로막	-11.4698
▁좁혀	-11.4699
코트	-11.47
▁압력을	-11.47
▁학위	-11.47
▁서방	-11.4701
▁통틀어	-11.4702
▁눌러	-11.4702
혐	-11.4704
▁어렵지	-11.4705
▁줄어	-11.4705
군에서	-11.4707
▁되지만	-11.4713
냈습니다	-11.4714
▁바뀔	-11.4717
1.7%	-11.4717
▁그와	-11.4717
신호	-11.4719
문화를	-11.472
▁변화는	-11.4721
▁분야는	-11.4722
▁벽을	-11.4722
▁근절	-11.4723
▁강렬한	-11.4724
▁전반기	-11.4725
▁신원	-11.4726
▁제동	-11.4727
▁MLB	-11.4727
▁이전까지	-11.4727
2.2%	-11.4728
▁공격으로	-11.4728
▁가져올	-11.4729
▁입체	-11.473
세는	-11.473
▁악영향	-11.4731
▁쫓	-11.4731
▁6%	-11.4732
▁키보드	-11.4733
▁바뀌어	-11.4734
▁돌렸다	-11.4734
▁기억을	-11.4736
쳤지만	-11.4738
▁시원	-11.4738
▁돕고	-11.4738
▁쓰면	-11.4739
더블	-11.4739
▁열세	-11.4741
▁벚꽃	-11.4742
하느라	-11.4742
▁유저들이	-11.4743
연장	-11.4744
워즈	-11.4744
▁관계에	-11.4744
▁인프라를	-11.4745
▁인문학	-11.4746
▁섞어	-11.4746
▁성형	-11.4747
▁새끼	-11.4748
▁받기도	-11.4749
▁핀테크	-11.4749
▁다가가	-11.475
▁납득	-11.4753
▁관람객들	-11.4754
▁수단으로	-11.4754
▁월간	-11.4755
▁자신들이	-11.4755
▁받으	-11.4755
▁내세웠다	-11.4757
GDP	-11.4757
▁해결하는	-11.4757
▁러브	-11.4759
▁엄격한	-11.4759
FIFA	-11.476
▁아시아나항공	-11.476
▁유권자들	-11.476
▁감독으로	-11.4762
▁알렉스	-11.4762
▁사태에	-11.4763
▁야당이	-11.4763
▁우승한	-11.4765
▁양해각서	-11.4767
▁KLPGA	-11.4768
▁볼넷을	-11.4769
▁외환위기	-11.4771
신당	-11.4772
▁팬들을	-11.4772
▁내주며	-11.4772
▁다양하다	-11.4773
▁스크	-11.4775
▁의사결정	-11.4775
▁UN	-11.4776
▁괴롭	-11.4776
▁가솔린	-11.4778
▁짚	-11.478
▁보호를	-11.4781
▁홈페이지에서	-11.4781
4.4%	-11.4782
곽	-11.4782
다시피	-11.4783
▁넘었다	-11.4783
▁왕자	-11.4783
▁몫을	-11.4784
▁적자를	-11.4785
▁낙관	-11.4785
▁창설	-11.4785
▁수직	-11.4787
The	-11.4787
ast	-11.4789
1.2%	-11.4789
돕	-11.4789
▁조립	-11.4792
▁상태였다	-11.4792
▁구체화	-11.4793
hi	-11.4793
▁경제위기	-11.4795
▁이벤트가	-11.4795
▁일본어	-11.4796
▁합류한	-11.4796
▁교섭	-11.4797
▁말리	-11.4798
▁경제정책	-11.4799
▁펑	-11.4799
▁당국자는	-11.4799
▁지지율이	-11.48
▁폭스바겐	-11.48
3.4%	-11.4801
▁다문화	-11.4802
▁수행할	-11.4803
▁친구들과	-11.4803
▁공안	-11.4804
▁2030	-11.4805
▁인물로	-11.4805
챔피언십	-11.4807
건설은	-11.4807
▁명소	-11.4808
▁정계	-11.4808
GA	-11.4808
▁만나고	-11.4809
▁최경주	-11.481
▁NBA	-11.4812
▁달라질	-11.4812
▁아리	-11.4812
▁수출이	-11.4813
▁늘렸다	-11.4814
▁친구가	-11.4815
▁이데일리	-11.4817
나마	-11.4817
▁CBS	-11.4818
▁2022	-11.4819
▁야후	-11.4821
▁직선	-11.4822
▁영업이익이	-11.4822
▁반응은	-11.4823
▁역사가	-11.4824
형태	-11.4824
▁박원순	-11.4825
▁조선시대	-11.4827
50%	-11.4827
갔습니다	-11.4827
▁진정성	-11.483
▁190	-11.483
▁연장전	-11.4831
▁생리	-11.4831
▁알려주	-11.4833
전시	-11.4835
▁작용했다	-11.4835
▁중고차	-11.4836
▁프랑스의	-11.4836
▁재즈	-11.4837
▁시청률	-11.4838
▁파악할	-11.4838
▁최종전	-11.4841
▁쉐	-11.4842
여개의	-11.4842
▁절정	-11.4844
▁랭크	-11.4844
▁적시	-11.4844
연패에	-11.4845
▁지원에	-11.4845
▁활동하는	-11.4845
4.3%	-11.4846
순위로	-11.4846
▁하도록	-11.4847
▁사물인터넷	-11.4848
▁과천	-11.4848
▁구성했다	-11.4848
적이지	-11.4849
▁1987	-11.4849
방위	-11.485
▁김광현	-11.4854
▁송금	-11.4857
▁톰	-11.4858
▁단계적으로	-11.4858
▁침입	-11.4859
▁목사는	-11.4859
가격은	-11.486
▁담장	-11.4861
ack	-11.4861
▁공개할	-11.4861
~7	-11.4862
▁강자	-11.4863
▁읽을	-11.4863
▁구글은	-11.4864
▁엄청나게	-11.4866
▁달에	-11.4866
사전	-11.4867
▁플로	-11.4868
▁이거	-11.487
▁승기	-11.487
(31	-11.4872
블루	-11.4874
▁깎아	-11.4875
▁비대위	-11.4876
▁김원	-11.4876
▁원정경기	-11.4878
▁지지층	-11.4878
사업본부	-11.4879
▁파트	-11.488
▁인스타그램	-11.488
차별	-11.4881
슬리	-11.4882
테스	-11.4882
▁포스터	-11.4883
▁면역력	-11.4884
보단	-11.4884
▁성장이	-11.4886
▁개발하는	-11.4886
▁인정했다	-11.4887
▁문화가	-11.4888
▁바라보	-11.4888
지역으로	-11.489
▁막히	-11.4891
▁목표가	-11.4891
▁앓고	-11.4891
▁좌익수	-11.4891
▁겹쳐	-11.4891
▁퇴임	-11.4892
▁고작	-11.4892
들만	-11.4893
EP	-11.4893
∼4	-11.4894
되므로	-11.4894
검증	-11.4895
▁오로지	-11.4896
버트	-11.4897
▁탐색	-11.4898
분에는	-11.4898
투스	-11.4898
▁장신	-11.4899
▁고도화	-11.4899
DR	-11.4899
맥주	-11.49
▁시비	-11.4903
▁on	-11.4903
▁예고했다	-11.4904
얀	-11.4904
겠는데요	-11.4904
▁AC	-11.4905
▁애틀랜타	-11.4906
▁강정호는	-11.4906
▁성장성	-11.4906
▁환자는	-11.4907
▁코스피지수	-11.4909
▁견해를	-11.491
▁후유증	-11.491
▁토마스	-11.491
▁명령을	-11.4913
▁가득한	-11.4913
▁세력이	-11.4916
▁촉	-11.4917
감시	-11.4917
커피	-11.4917
▁우승으로	-11.4917
▁경찰서	-11.4917
똥	-11.4917
▁퇴근	-11.4917
▁병사	-11.4918
었는지	-11.4918
▁녀석	-11.4918
파운드	-11.4919
▁중견수	-11.492
▁소설가	-11.492
▁기다려	-11.4922
▁대안을	-11.4922
슬라	-11.4922
▁공작	-11.4923
호와	-11.4924
▁사외이사	-11.4925
▁온실가스	-11.4925
배구	-11.4925
▁취하고	-11.4926
▁땅에	-11.4926
▁줄을	-11.4927
▁어리	-11.4928
▁한나라당의	-11.493
▁몰린	-11.4932
▁존재하지	-11.4932
▁신진	-11.4932
▁비로소	-11.4933
▁조종사	-11.4937
▁문화적	-11.4937
▁넘쳐	-11.4939
▁올라갈	-11.4939
갔지만	-11.494
▁작곡가	-11.4943
붕	-11.4944
▁숭	-11.4944
▁모발	-11.4946
▁퍼거슨	-11.4947
▁만점	-11.4947
▁배우는	-11.4948
(...)	-11.4949
▁학과	-11.4949
청장	-11.495
억원대	-11.4951
▁물어보	-11.4951
▁달러로	-11.4956
▁고비	-11.4956
▁짚어	-11.4957
▁맞았	-11.4957
▁치렀다	-11.4959
▁원활	-11.496
개씩	-11.496
▁안정화	-11.496
▁순차적으로	-11.4962
▁농축	-11.4962
▁컨텐츠	-11.4964
▁정전	-11.4965
▁인문	-11.4966
▁반군	-11.4967
하기에는	-11.4969
▁형편	-11.4969
▁씨와	-11.4969
▁이상한	-11.497
▁쓸어	-11.4971
▁사무총장은	-11.4972
▁배경에	-11.4974
먹는	-11.4974
포터	-11.4974
▁입건	-11.4974
▁책에	-11.4975
▁노동부	-11.4975
▁생체	-11.4976
▁챔피언결정전	-11.4976
상황을	-11.4979
식물	-11.4979
▁후쿠시마	-11.498
코는	-11.4981
▁성별	-11.4981
▁상공	-11.4983
▁항암	-11.4984
퍼스	-11.4985
▁신청할	-11.4986
▁디자인과	-11.4986
▁사이드	-11.499
업체들이	-11.499
▁마틴	-11.4991
▁반발하고	-11.4991
▁거야	-11.4992
▁엔진을	-11.4992
▁이상은	-11.4993
▁레이싱	-11.4994
▁나눌	-11.4996
것이	-11.4997
▁윌리엄스	-11.4997
▁그루	-11.4997
패션	-11.4998
▁신종	-11.4999
▁이승우	-11.5001
▁지옥	-11.5003
▁상표	-11.5005
쑤	-11.5005
▁엮	-11.5005
브로	-11.5005
▁코치는	-11.5005
▁김명	-11.5006
▁특이	-11.5006
▁최우수	-11.5007
▁터널	-11.5008
▁짧게	-11.5008
▁화살	-11.5008
▁내밀	-11.5008
▁만난다	-11.5008
▁저평가	-11.5008
조각	-11.5008
▁참전	-11.5009
▁데뷔한	-11.5009
▁다름	-11.5009
▁관계자들이	-11.5009
man	-11.5009
▁팔레스타인	-11.501
▁이곳은	-11.501
텔레콤이	-11.501
▁차체	-11.5011
▁저자가	-11.5014
▁쐐기	-11.5014
▁이동통신사	-11.5015
▁항만	-11.5015
렙	-11.5017
▁프리미어	-11.5018
▁숨어	-11.5019
▁낭	-11.5019
성형	-11.5021
섀	-11.5021
원대	-11.5022
▁회상	-11.5023
▁주관하는	-11.5023
▁편리한	-11.5025
개나	-11.5027
▁광산	-11.5028
NT	-11.5028
사령관	-11.5029
EL	-11.503
▁기차	-11.503
▁넘은	-11.5031
▁조속히	-11.5032
▁민감	-11.5035
▁검진	-11.5035
▁트래픽	-11.5036
▁법령	-11.5037
▁활약이	-11.5038
▁맞췄다	-11.5038
위다	-11.5039
▁대전시	-11.5039
▁가족을	-11.504
▁코오롱	-11.504
▁줄어드는	-11.5041
▁심사위원	-11.5042
▁전환을	-11.5043
▁내용도	-11.5043
▁차라리	-11.5044
▁외교적	-11.5047
희망	-11.5048
세종	-11.5048
▁이긴	-11.505
IM	-11.5051
▁발렌시아	-11.5051
▁집중하고	-11.5052
▁경보	-11.5053
▁기미	-11.5053
▁케어	-11.5053
꼴	-11.5054
2006	-11.5054
▁발견했다	-11.5054
ear	-11.5056
▁성격을	-11.5056
▁가난한	-11.5056
▁특급	-11.5057
▁신고를	-11.5057
▁세이브	-11.5058
▁하천	-11.5058
자기	-11.5058
▁증설	-11.5061
2.1	-11.5061
2007	-11.5061
가격이	-11.5062
山	-11.5062
▁작아	-11.5063
3.1%	-11.5064
천억	-11.5066
▁그룹의	-11.5066
▁지휘봉	-11.5066
장소	-11.5067
▁폭풍	-11.5068
▁환율이	-11.5068
▁휴일	-11.5068
▁확산되고	-11.5069
▁필터	-11.5069
경보	-11.507
▁매직	-11.5071
▁부친	-11.5072
▁원거리	-11.5072
길에	-11.5073
ud	-11.5073
▁조사하고	-11.5073
▁촬영한	-11.5073
▁평등	-11.5074
▁단장은	-11.5074
▁|	-11.5075
▁달할	-11.5075
▁가져다	-11.5077
뛰	-11.5077
▁보고서에서	-11.5077
▁아픔을	-11.5079
▁상반기에	-11.508
▁EPL	-11.5081
▁조망	-11.5083
전국	-11.5083
▁만끽	-11.5085
▁공동대표	-11.5085
▁동반성장	-11.5086
건물	-11.5086
인들에게	-11.5086
▁비자금	-11.5089
▁실력이	-11.5091
▁발전소	-11.5091
솔루션	-11.5092
▁편의를	-11.5093
▁넣으며	-11.5095
▁악용	-11.5095
▁지식을	-11.5095
▁막아내	-11.5095
▁백제	-11.5097
▁볼티모어	-11.51
슈퍼	-11.51
▁해요	-11.51
아직	-11.5101
조절	-11.5101
▁하드	-11.5103
▁내용과	-11.5103
▁얻지	-11.5103
▁광양	-11.5105
▁산다	-11.5107
▁길은	-11.5107
▁살피	-11.5108
▁한전	-11.5108
▁해산	-11.511
▁영세	-11.511
20)	-11.5111
▁경희대	-11.5112
공동체	-11.5112
▁내보내	-11.5113
경찰청	-11.5115
기념관	-11.5117
RI	-11.5117
▁빨간	-11.5118
▁경기장에서	-11.5119
▁내부의	-11.5121
▁방역	-11.5122
▁읽기	-11.5123
▁관심도	-11.5123
▁늘면서	-11.5124
▁들여다보	-11.5124
▁국제사회의	-11.5125
▁이유도	-11.5126
트레	-11.5127
▁울산시	-11.5131
▁애널리스트	-11.5131
▁공연장	-11.5132
▁대학의	-11.5132
일정	-11.5132
▁도대체	-11.5132
▁기자의	-11.5134
▁필요는	-11.5135
▁시즌에는	-11.5136
▁번씩	-11.5136
▁하겠습니다	-11.5137
▁취한	-11.5138
▁신중한	-11.5139
▁증가해	-11.514
▁회복세	-11.5141
▁이해하기	-11.5143
▁어디서	-11.5143
▁주둔	-11.5143
▁지적을	-11.5144
뿐이다	-11.5145
▁카운터	-11.5145
▁가급적	-11.5145
▁공유하는	-11.5145
▁고난	-11.5146
마스터	-11.5146
주의자	-11.5149
▁청년들	-11.5149
▁공유하고	-11.5153
▁전남도	-11.5154
▁클리	-11.5154
박사	-11.5154
▁국내총생산	-11.5156
▁부문의	-11.5157
넥스	-11.5157
▁거취	-11.5157
통상	-11.5158
시에는	-11.5159
놨다	-11.5159
▁의정부	-11.516
▁가자	-11.5161
▁싸워	-11.5163
▁확보에	-11.5164
▁광명	-11.5164
하기가	-11.5167
▁기종	-11.5167
2.8%	-11.5168
▁버튼을	-11.5169
▁고령화	-11.517
▁알레르기	-11.5172
▁남구	-11.5172
3.8%	-11.5173
▁진통	-11.5173
▁아이디	-11.5173
▁코엑스	-11.5173
▁파트너십	-11.5173
▁0.5%	-11.5174
▁선체	-11.5174
▁개발이	-11.5175
▁노력할	-11.5175
▁나가고	-11.5176
▁제도가	-11.5176
▁잘하는	-11.5176
▁다양성	-11.5178
▁소통을	-11.5178
▁우측	-11.5178
▁인사들이	-11.5179
▁계급	-11.5179
▁노려	-11.5181
▁대북정책	-11.5181
▁좋습니다	-11.5182
▁남아있는	-11.5182
▁민영화	-11.5183
▁상원의원	-11.5184
▁일으켜	-11.5187
베스	-11.5187
▁바꾸고	-11.5187
▁메디	-11.5187
뱅킹	-11.5187
▁저격	-11.5188
▁KO	-11.5189
▁유보	-11.5189
▁쉽	-11.5189
▁캐시	-11.5192
▁실시된	-11.5193
▁학교를	-11.5193
▁뉴스를	-11.5193
ti	-11.5193
▁소원	-11.5194
▁블리자드	-11.5194
▁도저히	-11.5194
▁선진화	-11.5195
▁복음	-11.5195
ff	-11.5196
▁조류	-11.5196
▁1.4	-11.5197
▁경험한	-11.5197
▁금방	-11.5199
▁거칠	-11.5199
하곤	-11.5199
▁인재를	-11.52
▁국도	-11.5201
▁생기면	-11.5201
▁종목은	-11.5202
▁사진과	-11.5202
EN	-11.5203
▁총무	-11.5203
▁법원은	-11.5204
▁좁	-11.5204
곰	-11.5206
▁휴양	-11.5207
TP	-11.5208
업계는	-11.521
▁지장	-11.521
▁주입	-11.5212
▁사람으로	-11.5212
▁공약을	-11.5215
▁강북	-11.5216
체제를	-11.5216
iz	-11.5217
▁경험치	-11.5218
▁역전승을	-11.5218
배나	-11.5219
▁필요성이	-11.5219
▁총수	-11.5222
OL	-11.5222
▁못하도록	-11.5223
▁부총리는	-11.5224
▁하우스	-11.5226
▁심각하게	-11.5226
▁세수	-11.5227
▁회의에	-11.5227
▁살기	-11.5227
▁광복	-11.5228
▁머물러	-11.5231
통계	-11.5231
▁아름답	-11.5232
▁쇼트트랙	-11.5232
▁분해	-11.5233
빨	-11.5233
▁사령관	-11.5234
▁나가야	-11.5235
▁좌완	-11.5235
▁재산을	-11.5236
▁같고	-11.5236
▁나눴다	-11.5236
▁핀란드	-11.5236
if	-11.5237
▁뮤직	-11.5239
RC	-11.5239
▁할부	-11.524
▁사자	-11.524
▁작곡	-11.5241
▁효율성을	-11.5242
▁마시는	-11.5243
▁환수	-11.5243
보지	-11.5243
▁1.8	-11.5244
▁거래되고	-11.5245
▁국가에서	-11.5246
▁이용객	-11.5247
▁제시하는	-11.5247
▁피칭	-11.5249
▁0.7	-11.5249
여당	-11.5249
▁전례	-11.5252
CM	-11.5253
▁보드	-11.5253
▁재해	-11.5254
▁판단하고	-11.5255
라든지	-11.5255
▁국비	-11.5257
▁댄	-11.5257
▁취지로	-11.5259
▁찬반	-11.526
▁성매매	-11.5262
▁개최한	-11.5264
▁중견	-11.5264
▁락	-11.5264
▁일어났다	-11.5267
▁서서	-11.5268
▁마니아	-11.5269
▁하여금	-11.5269
▁모를	-11.5269
▁나와서	-11.527
▁옮김	-11.527
▁깨닫	-11.527
▁엉덩이	-11.527
▁품고	-11.5271
▁유용한	-11.5271
▁노키아	-11.5274
▁돌파했다	-11.5277
블리	-11.5278
▁팔꿈치	-11.5278
▁사회주의	-11.5278
▁역설	-11.5278
교환	-11.5279
▁0.6	-11.5279
▁표출	-11.5282
▁공문	-11.5282
▁결집	-11.5283
▁재학	-11.5283
렴	-11.5283
되었는데	-11.5284
▁짙은	-11.5286
대행	-11.5288
▁들어왔다	-11.5289
▁풍성한	-11.529
▁후방	-11.529
잊	-11.5291
▁무엇	-11.5291
플렉스	-11.5293
내려	-11.5293
▁지식경제부	-11.5293
▁택배	-11.5294
▁이관	-11.5295
ial	-11.5295
▁바로잡	-11.5297
▁냉정	-11.5298
▁높다고	-11.5298
▁최선의	-11.5298
▁산업단지	-11.5301
▁넷	-11.5302
▁감사를	-11.5303
▁체력을	-11.5303
▁스파이	-11.5303
▁괜찮은	-11.5305
▁iOS	-11.5305
▁드리블	-11.5305
▁자격이	-11.5306
석의	-11.5306
▁초연	-11.5308
▁촉발	-11.5311
▁근본적으로	-11.5312
▁1950	-11.5312
▁알았	-11.5312
io	-11.5312
라니	-11.5313
▁벌어지고	-11.5315
▁않습니까	-11.5317
▁도입된	-11.5317
만원씩	-11.5318
▁투자할	-11.5318
▁공무원들	-11.5321
▁최대주주	-11.5321
▁플레이가	-11.5321
▁멀티미디어	-11.5321
▁신념	-11.5321
▁점수차	-11.5322
촉진	-11.5323
▁보도가	-11.5325
▁시설물	-11.5326
▁적절히	-11.5327
▁이쪽	-11.5328
▁배를	-11.5329
엉	-11.533
▁선보였	-11.533
▁좋아지	-11.5331
가구가	-11.5331
▁미세	-11.5331
▁날아가	-11.5333
▁창문	-11.5334
▁생생한	-11.5335
▁시사했다	-11.5335
▁투자자들이	-11.5335
▁출연한	-11.5336
받기	-11.5336
▁st	-11.5337
▁『	-11.5337
▁거울	-11.5338
▁주말에	-11.5339
▁저널	-11.5339
▁문자메시지	-11.534
▁최재	-11.534
▁반납	-11.534
▁감옥	-11.5341
▁멘	-11.5343
▁감행	-11.5343
▁할인된	-11.5345
▁두피	-11.5346
▁편지를	-11.5346
▁분배	-11.5348
▁가르쳐	-11.5349
▁경험할	-11.535
▁대중화	-11.535
▁월스트리트저널	-11.5351
그램	-11.5353
▁정씨	-11.5353
함으로	-11.5354
수비	-11.5355
억여원	-11.5356
주었다	-11.5357
노동자	-11.5359
AN	-11.5359
▁승리가	-11.536
▁강타	-11.5361
대금	-11.5361
▁어렵다고	-11.5362
▁승무원	-11.5363
▁발상	-11.5363
▁귀족	-11.5363
▁호기심	-11.5367
▁적절	-11.5367
졌을	-11.5368
▁검찰총장	-11.5368
▁지경	-11.5368
▁1~3	-11.5369
▁표적	-11.5369
▁미네소타	-11.537
▁남성들	-11.5371
▁판매하고	-11.5371
▁대공	-11.5372
VR	-11.5374
▁빠질	-11.5375
▁깔끔한	-11.5376
사업의	-11.5376
▁롯데마트	-11.5376
▁결합한	-11.5378
▁돈으로	-11.5381
▁즐기고	-11.5381
▁북구	-11.5381
▁촉구하는	-11.5382
보유	-11.5382
▁남성의	-11.5382
▁팀들	-11.5384
▁폼	-11.5385
▁그해	-11.5386
▁홈쇼핑	-11.5387
▁시민의	-11.5387
▁토니	-11.5388
▁남성은	-11.5388
▁우리도	-11.5389
▁마구	-11.5389
▁오마이뉴스	-11.539
▁추가해	-11.539
쿄	-11.539
▁머물고	-11.539
5.5	-11.539
▁제법	-11.5391
▁수용할	-11.5391
▁쌓인	-11.5391
▁조금만	-11.5392
2.5	-11.5392
▁도전한다	-11.5393
▁과제로	-11.5393
▁부통령	-11.5393
▁은메달	-11.5394
▁미국으로	-11.5395
▁지킬	-11.5395
촬영	-11.5395
▁출원	-11.5396
▁퀄컴	-11.5397
2010	-11.5399
▁선수에게	-11.5399
▁따뜻	-11.5404
남북	-11.5404
▁논술	-11.5404
▁불리한	-11.5405
▁침략	-11.5406
▁모티브	-11.5406
▁트래	-11.5406
▁메이저대회	-11.5408
·1	-11.5408
▁차관은	-11.5408
▁플라이	-11.5409
▁라이언	-11.5409
▁찾아야	-11.541
▁끝났	-11.541
▁투자자들의	-11.5411
▁발언에	-11.5412
▁불이익	-11.5412
플레이어	-11.5414
▁화염	-11.5416
▁당정	-11.5416
타르	-11.5417
▁▦	-11.5417
▁얼마든지	-11.5417
도움	-11.5418
리온	-11.5418
▁없으니	-11.542
검색	-11.5421
▁정말로	-11.5425
▁관광객이	-11.5426
▁의문이	-11.5427
▁진출이	-11.5428
▁샌디에이고	-11.5428
▁꿈꾸	-11.5429
▁당첨자	-11.5429
▁첼시는	-11.543
▁의원총회	-11.5431
▁로드맵	-11.5433
▁하프	-11.5433
▁막혀	-11.5433
▁읍	-11.5433
▁패밀리	-11.5434
동맹	-11.5436
선택	-11.5436
▁날렸다	-11.5438
▁최고기온	-11.544
바퀴	-11.544
▁알파고	-11.5443
▁넘기는	-11.5443
▁살린	-11.5445
1.1%	-11.5446
▁명단을	-11.5447
쿤	-11.5448
상공회의소	-11.5448
▁일련	-11.5448
▁학살	-11.5449
▁임용	-11.545
▁사이로	-11.5451
▁실제로는	-11.5452
(38	-11.5453
영민	-11.5454
수정	-11.5454
고속	-11.5454
▁들어가면	-11.5454
▁시도했다	-11.5455
▁퍼지	-11.5455
▁숙제	-11.5457
▁각기	-11.5457
리버	-11.5458
▁통화정책	-11.5459
▁틀어	-11.546
▁구별	-11.5461
▁고쳐	-11.5461
▁언론과	-11.5461
들보다	-11.5461
▁조사가	-11.5461
▁최고급	-11.5462
▁결승골을	-11.5463
▁결실	-11.5464
▁군단	-11.5464
▁삼각	-11.5465
▁강의를	-11.5466
▁정답	-11.5466
▁가축	-11.5467
▁입양	-11.5467
▁과시했다	-11.5467
▁증여	-11.5468
▁할당	-11.5468
▁부합	-11.5469
▁군의	-11.5469
▁기자간담회에서	-11.547
▁일정으로	-11.547
검사를	-11.547
정부의	-11.5472
▁레저	-11.5473
손실	-11.5473
▁텔레	-11.5474
기관인	-11.5475
▁일시적으로	-11.5476
성향	-11.5476
▁교수팀	-11.5477
만명에	-11.5477
▁전달할	-11.5478
▁사례로	-11.5478
▁업체에	-11.5479
수행	-11.5479
명에서	-11.548
터널	-11.5481
SO	-11.5481
▁0.1%	-11.5481
▁부응	-11.5483
ak	-11.5484
프랑스	-11.5486
▁후기	-11.5487
7.5%	-11.5488
▁때문인지	-11.5489
▁작고	-11.549
▁자동화	-11.5491
▁낫	-11.5493
옴	-11.5493
(200	-11.5493
BB	-11.5493
편이	-11.5494
▁이재용	-11.5495
그런	-11.5495
누리	-11.5496
▁모습도	-11.5496
▁귀환	-11.5497
▁지지하는	-11.5497
▁검토할	-11.5497
∼5	-11.5499
▁잔디	-11.5503
▁판단에	-11.5503
동부	-11.5503
▁대박	-11.5504
▁증가세	-11.5505
▁받았지만	-11.5506
▁패한	-11.5507
▁월세	-11.551
▁필름	-11.5511
▁취해	-11.5512
▁객	-11.5512
▁시도한	-11.5514
▁대도시	-11.5515
성능	-11.5516
▁국왕	-11.5516
시죠	-11.5517
▁사료	-11.5517
▁사우디아라비아	-11.5518
▁웬	-11.5519
▁외무성	-11.5522
▁거센	-11.5523
지역을	-11.5524
▁음식물	-11.5524
▁전념	-11.5524
▁엔딩	-11.5525
▁표방	-11.5525
▁견디	-11.5525
메스	-11.5525
▁창원시	-11.5526
▁눈높이	-11.5526
▁주유소	-11.5526
▁소식통	-11.5526
ion	-11.5527
▁깨고	-11.5527
▁환승	-11.553
▁토종	-11.553
▁로즈	-11.553
2005	-11.5531
▁탈북자	-11.5532
▁느	-11.5532
▁이해찬	-11.5533
바닥	-11.5533
▁똑같	-11.5534
▁투수로	-11.5537
▁블룸버그	-11.5537
유출	-11.5537
층에서	-11.5537
▁귀가	-11.5538
▁산악	-11.554
▁해상도	-11.554
▁전향	-11.5541
▁키즈	-11.5542
▁아르바이트	-11.5542
▁통장	-11.5542
▁등장해	-11.5543
▁국외	-11.5544
▁시드	-11.5544
융	-11.5545
인상	-11.5545
▁해결해야	-11.5546
▁시드니	-11.5547
축구협회	-11.5547
▁화소	-11.5547
▁지적에	-11.5548
▁오디션	-11.5549
▁원정경기에서	-11.555
작은	-11.555
툴	-11.555
▁최적화된	-11.555
▁불렀다	-11.5553
▁마음껏	-11.5554
클리닉	-11.5555
▁산업은행	-11.5555
▁년간	-11.5555
▁은행의	-11.5556
▁응답자의	-11.5557
▁꿇	-11.5557
▁부작용이	-11.5561
▁가난	-11.5561
▁정보보호	-11.5562
▁차트	-11.5562
▁놓인	-11.5564
▁파이어	-11.5564
▁긴밀한	-11.5565
▁요구가	-11.5567
▁친노	-11.5567
▁그쳐	-11.5568
▁절차가	-11.5569
▁치즈	-11.5569
▁기준에	-11.5569
▁참모	-11.5569
▁빌라	-11.557
▁미들	-11.5572
▁좋아한다	-11.5573
실내체육관에서	-11.5573
엎	-11.5573
▁박수를	-11.5575
버렸	-11.5575
▁창고	-11.5576
▁노예	-11.5576
▁높인	-11.5576
MW	-11.5577
▁표준화	-11.5577
▁담화	-11.5577
▁익명	-11.5578
▁놓았다	-11.5578
▁단체전	-11.558
▁부당한	-11.5581
번을	-11.5582
▁질문에는	-11.5582
▁뽑아내	-11.5583
해왔던	-11.5583
▁연쇄	-11.5583
▁선두로	-11.5584
▁행정안전부	-11.5585
▁폭격	-11.5585
판에서	-11.5586
▁룩	-11.5587
▁설치하고	-11.5587
▁동의를	-11.5588
▁면치	-11.5588
테크놀로지	-11.5589
▁벗어난	-11.559
▁돌아갈	-11.5591
▁흔들었다	-11.5592
▁업종별로	-11.5593
▁돌아오는	-11.5593
3.9%	-11.5593
▁퍼즐	-11.5594
▁VIP	-11.5595
▁확보하는	-11.5597
▁산업통상자원부	-11.5597
▁시간도	-11.5598
▁디스	-11.5599
▁일하고	-11.5602
▁105	-11.5603
▁중진	-11.5603
PF	-11.5605
▁라인업을	-11.5605
▁화폐	-11.5605
▁해가	-11.5605
▁토로했다	-11.5606
▁아쉬움이	-11.5606
▁대비한	-11.5608
▁신세	-11.5608
현황	-11.5609
▁상대는	-11.5609
▁야당은	-11.5609
가능성	-11.5609
▁개정안은	-11.561
▁거듭나	-11.5611
▁서비스와	-11.5613
▁가정의	-11.5613
▁가뭄	-11.5614
▁감당	-11.5616
▁군부	-11.5616
▁UHD	-11.5618
▁만들어졌다	-11.5618
▁실려	-11.5621
▁파격적인	-11.5624
▁타당성	-11.5625
▁다할	-11.5625
▁만들었	-11.5626
전체	-11.5626
▁잡힌	-11.5627
▁남해안	-11.5629
할수록	-11.563
▁다뤄	-11.5631
▁못지	-11.5631
▁레오	-11.5633
프로젝트	-11.5633
▁이승엽	-11.5634
▁세이	-11.5634
▁경과	-11.5634
▁코스닥시장	-11.5635
2009	-11.5637
호주	-11.5637
▁대학에	-11.5638
▁마련돼	-11.5638
▁양사	-11.564
▁그랑프리	-11.564
▁캐릭터들	-11.5641
▁Pro	-11.5642
▁체제로	-11.5642
▁모순	-11.5642
▁시뮬레이션	-11.5644
▁출전할	-11.5646
▁악기	-11.5647
▁ROAD	-11.5648
▁실리	-11.5649
▁파손	-11.5649
▁쏟아지	-11.565
▁브랜드의	-11.565
▁에디션	-11.5652
▁우루과이	-11.5652
▁몸싸움	-11.5654
▁목적을	-11.5658
써	-11.5659
▁특허를	-11.5661
▁가슴이	-11.5661
주의적	-11.5662
▁경기였다	-11.5662
▁작품의	-11.5665
▁확연	-11.5666
oc	-11.5671
▁지냈다	-11.5672
▁당시의	-11.5672
▁물량을	-11.5673
▁교감	-11.5675
아프리카	-11.5675
▁나머지는	-11.5679
지급	-11.5679
▁썬	-11.568
성훈	-11.5681
혈관	-11.5681
▁터뜨리며	-11.5682
▁미주	-11.5682
▁라면	-11.5682
▁아스	-11.5683
▁운영된다	-11.5685
▁삐	-11.5687
▁속초	-11.5687
▁에드	-11.5687
▁브렉시트	-11.5688
▁스포티	-11.5688
▁돌아다니	-11.5689
타이어	-11.569
▁해외시장	-11.5692
▁구하기	-11.5693
▁주택담보대출	-11.5693
▁추이	-11.5693
▁많아서	-11.5695
ance	-11.5697
▁윈도우	-11.5697
▁컴퓨팅	-11.5697
콘서트	-11.5698
▁하와이	-11.5698
▁신입생	-11.5699
▁양심	-11.5699
▁제도적	-11.5703
▁관악	-11.5704
밸	-11.5705
▁채팅	-11.5705
회째	-11.5706
▁개개인	-11.5707
〉	-11.5708
▁대용량	-11.5708
▁포함된다	-11.5708
원전	-11.5709
▁원칙에	-11.5709
▁강진	-11.571
경비	-11.571
인프라	-11.5711
▁장기적인	-11.5711
▁그만두	-11.5711
▁톡톡히	-11.5713
▁신흥	-11.5713
▁홍수	-11.5714
▁박지성은	-11.5714
▁참가할	-11.5714
▁결렬	-11.5714
버전	-11.5715
▁자유무역협정	-11.5716
▁비교할	-11.5717
ob	-11.5717
▁지도부가	-11.5717
였을	-11.5718
▁자매	-11.5719
▁환상적인	-11.5719
헨	-11.572
여만원	-11.572
▁복귀한	-11.572
▁방문객	-11.5721
▁희망하는	-11.5723
▁결정은	-11.5723
▁이끌어내	-11.5724
▁블루투스	-11.5724
▁소신	-11.5725
▁달라졌다	-11.5725
▁몸의	-11.5727
6.5%	-11.5727
▁여가	-11.5727
▁예컨대	-11.5728
▁내부에	-11.5728
▁35%	-11.5729
▁삼성동	-11.5729
론은	-11.573
▁활발히	-11.5731
▁대두	-11.5731
▁제네시스	-11.5732
▁통합진보당	-11.5732
▁여학생	-11.5732
▁해병대	-11.5732
▁멘토	-11.5732
▁실질적	-11.5732
▁대성	-11.5733
▁박탈	-11.5733
▁유치를	-11.5734
▁캐스터	-11.5734
▁증시가	-11.5735
▁공청회	-11.5736
▁줄어들었다	-11.5736
▁과정은	-11.5737
▁메카	-11.5737
갱	-11.5738
▁디자인이	-11.574
▁발걸음	-11.574
▁지켜봐야	-11.5741
보라	-11.5741
▁형태를	-11.5743
반응	-11.5745
▁않겠다고	-11.5746
▁후지	-11.5746
▁실명	-11.5746
대병원	-11.5746
만원까지	-11.5748
▁투여	-11.5748
▁시각이	-11.5749
지던	-11.575
▁신속	-11.575
▁구단의	-11.5751
▁베스트셀러	-11.5752
륙	-11.5753
di	-11.5754
[...]
